{
  "version": "1.0",
  "truncation": null,
  "padding": null,
  "added_tokens": [
    {
      "id": 32000,
      "content": "<|begin_of_text|>",
      "single_word": false,
      "lstrip": false,
      "rstrip": false,
      "normalized": false,
      "special": true
    },
    {
      "id": 32001,
      "content": "<|end_of_text|>",
      "single_word": false,
      "lstrip": false,
      "rstrip": false,
      "normalized": false,
      "special": true
    },
    {
      "id": 32002,
      "content": "<|reserved_special_token_0|>",
      "single_word": false,
      "lstrip": false,
      "rstrip": false,
      "normalized": false,
      "special": true
    },
    {
      "id": 32003,
      "content": "<|reserved_special_token_1|>",
      "single_word": false,
      "lstrip": false,
      "rstrip": false,
      "normalized": false,
      "special": true
    },
    {
      "id": 32004,
      "content": "<|finetune_right_pad_id|>",
      "single_word": false,
      "lstrip": false,
      "rstrip": false,
      "normalized": false,
      "special": true
    },
    {
      "id": 32005,
      "content": "<|reserved_special_token_2|>",
      "single_word": false,
      "lstrip": false,
      "rstrip": false,
      "normalized": false,
      "special": true
    },
    {
      "id": 32006,
      "content": "<|start_header_id|>",
      "single_word": false,
      "lstrip": false,
      "rstrip": false,
      "normalized": false,
      "special": true
    },
    {
      "id": 32007,
      "content": "<|end_header_id|>",
      "single_word": false,
      "lstrip": false,
      "rstrip": false,
      "normalized": false,
      "special": true
    },
    {
      "id": 32008,
      "content": "<|eom_id|>",
      "single_word": false,
      "lstrip": false,
      "rstrip": false,
      "normalized": false,
      "special": true
    },
    {
      "id": 32009,
      "content": "<|eot_id|>",
      "single_word": false,
      "lstrip": false,
      "rstrip": false,
      "normalized": false,
      "special": true
    },
    {
      "id": 32010,
      "content": "<|python_tag|>",
      "single_word": false,
      "lstrip": false,
      "rstrip": false,
      "normalized": false,
      "special": true
    },
    {
      "id": 32011,
      "content": "<|reserved_special_token_3|>",
      "single_word": false,
      "lstrip": false,
      "rstrip": false,
      "normalized": false,
      "special": true
    },
    {
      "id": 32012,
      "content": "<|reserved_special_token_4|>",
      "single_word": false,
      "lstrip": false,
      "rstrip": false,
      "normalized": false,
      "special": true
    },
    {
      "id": 32013,
      "content": "<|reserved_special_token_5|>",
      "single_word": false,
      "lstrip": false,
      "rstrip": false,
      "normalized": false,
      "special": true
    },
    {
      "id": 32014,
      "content": "<|reserved_special_token_6|>",
      "single_word": false,
      "lstrip": false,
      "rstrip": false,
      "normalized": false,
      "special": true
    },
    {
      "id": 32015,
      "content": "<|reserved_special_token_7|>",
      "single_word": false,
      "lstrip": false,
      "rstrip": false,
      "normalized": false,
      "special": true
    },
    {
      "id": 32016,
      "content": "<|reserved_special_token_8|>",
      "single_word": false,
      "lstrip": false,
      "rstrip": false,
      "normalized": false,
      "special": true
    },
    {
      "id": 32017,
      "content": "<|reserved_special_token_9|>",
      "single_word": false,
      "lstrip": false,
      "rstrip": false,
      "normalized": false,
      "special": true
    },
    {
      "id": 32018,
      "content": "<|reserved_special_token_10|>",
      "single_word": false,
      "lstrip": false,
      "rstrip": false,
      "normalized": false,
      "special": true
    },
    {
      "id": 32019,
      "content": "<|reserved_special_token_11|>",
      "single_word": false,
      "lstrip": false,
      "rstrip": false,
      "normalized": false,
      "special": true
    },
    {
      "id": 32020,
      "content": "<|reserved_special_token_12|>",
      "single_word": false,
      "lstrip": false,
      "rstrip": false,
      "normalized": false,
      "special": true
    },
    {
      "id": 32021,
      "content": "<|reserved_special_token_13|>",
      "single_word": false,
      "lstrip": false,
      "rstrip": false,
      "normalized": false,
      "special": true
    },
    {
      "id": 32022,
      "content": "<|reserved_special_token_14|>",
      "single_word": false,
      "lstrip": false,
      "rstrip": false,
      "normalized": false,
      "special": true
    },
    {
      "id": 32023,
      "content": "<|reserved_special_token_15|>",
      "single_word": false,
      "lstrip": false,
      "rstrip": false,
      "normalized": false,
      "special": true
    },
    {
      "id": 32024,
      "content": "<|reserved_special_token_16|>",
      "single_word": false,
      "lstrip": false,
      "rstrip": false,
      "normalized": false,
      "special": true
    },
    {
      "id": 32025,
      "content": "<|reserved_special_token_17|>",
      "single_word": false,
      "lstrip": false,
      "rstrip": false,
      "normalized": false,
      "special": true
    },
    {
      "id": 32026,
      "content": "<|reserved_special_token_18|>",
      "single_word": false,
      "lstrip": false,
      "rstrip": false,
      "normalized": false,
      "special": true
    },
    {
      "id": 32027,
      "content": "<|reserved_special_token_19|>",
      "single_word": false,
      "lstrip": false,
      "rstrip": false,
      "normalized": false,
      "special": true
    },
    {
      "id": 32028,
      "content": "<|reserved_special_token_20|>",
      "single_word": false,
      "lstrip": false,
      "rstrip": false,
      "normalized": false,
      "special": true
    },
    {
      "id": 32029,
      "content": "<|reserved_special_token_21|>",
      "single_word": false,
      "lstrip": false,
      "rstrip": false,
      "normalized": false,
      "special": true
    },
    {
      "id": 32030,
      "content": "<|reserved_special_token_22|>",
      "single_word": false,
      "lstrip": false,
      "rstrip": false,
      "normalized": false,
      "special": true
    },
    {
      "id": 32031,
      "content": "<|reserved_special_token_23|>",
      "single_word": false,
      "lstrip": false,
      "rstrip": false,
      "normalized": false,
      "special": true
    },
    {
      "id": 32032,
      "content": "<|reserved_special_token_24|>",
      "single_word": false,
      "lstrip": false,
      "rstrip": false,
      "normalized": false,
      "special": true
    },
    {
      "id": 32033,
      "content": "<|reserved_special_token_25|>",
      "single_word": false,
      "lstrip": false,
      "rstrip": false,
      "normalized": false,
      "special": true
    },
    {
      "id": 32034,
      "content": "<|reserved_special_token_26|>",
      "single_word": false,
      "lstrip": false,
      "rstrip": false,
      "normalized": false,
      "special": true
    },
    {
      "id": 32035,
      "content": "<|reserved_special_token_27|>",
      "single_word": false,
      "lstrip": false,
      "rstrip": false,
      "normalized": false,
      "special": true
    },
    {
      "id": 32036,
      "content": "<|reserved_special_token_28|>",
      "single_word": false,
      "lstrip": false,
      "rstrip": false,
      "normalized": false,
      "special": true
    },
    {
      "id": 32037,
      "content": "<|reserved_special_token_29|>",
      "single_word": false,
      "lstrip": false,
      "rstrip": false,
      "normalized": false,
      "special": true
    },
    {
      "id": 32038,
      "content": "<|reserved_special_token_30|>",
      "single_word": false,
      "lstrip": false,
      "rstrip": false,
      "normalized": false,
      "special": true
    },
    {
      "id": 32039,
      "content": "<|reserved_special_token_31|>",
      "single_word": false,
      "lstrip": false,
      "rstrip": false,
      "normalized": false,
      "special": true
    },
    {
      "id": 32040,
      "content": "<|reserved_special_token_32|>",
      "single_word": false,
      "lstrip": false,
      "rstrip": false,
      "normalized": false,
      "special": true
    },
    {
      "id": 32041,
      "content": "<|reserved_special_token_33|>",
      "single_word": false,
      "lstrip": false,
      "rstrip": false,
      "normalized": false,
      "special": true
    },
    {
      "id": 32042,
      "content": "<|reserved_special_token_34|>",
      "single_word": false,
      "lstrip": false,
      "rstrip": false,
      "normalized": false,
      "special": true
    },
    {
      "id": 32043,
      "content": "<|reserved_special_token_35|>",
      "single_word": false,
      "lstrip": false,
      "rstrip": false,
      "normalized": false,
      "special": true
    },
    {
      "id": 32044,
      "content": "<|reserved_special_token_36|>",
      "single_word": false,
      "lstrip": false,
      "rstrip": false,
      "normalized": false,
      "special": true
    },
    {
      "id": 32045,
      "content": "<|reserved_special_token_37|>",
      "single_word": false,
      "lstrip": false,
      "rstrip": false,
      "normalized": false,
      "special": true
    },
    {
      "id": 32046,
      "content": "<|reserved_special_token_38|>",
      "single_word": false,
      "lstrip": false,
      "rstrip": false,
      "normalized": false,
      "special": true
    },
    {
      "id": 32047,
      "content": "<|reserved_special_token_39|>",
      "single_word": false,
      "lstrip": false,
      "rstrip": false,
      "normalized": false,
      "special": true
    },
    {
      "id": 32048,
      "content": "<|reserved_special_token_40|>",
      "single_word": false,
      "lstrip": false,
      "rstrip": false,
      "normalized": false,
      "special": true
    },
    {
      "id": 32049,
      "content": "<|reserved_special_token_41|>",
      "single_word": false,
      "lstrip": false,
      "rstrip": false,
      "normalized": false,
      "special": true
    },
    {
      "id": 32050,
      "content": "<|reserved_special_token_42|>",
      "single_word": false,
      "lstrip": false,
      "rstrip": false,
      "normalized": false,
      "special": true
    },
    {
      "id": 32051,
      "content": "<|reserved_special_token_43|>",
      "single_word": false,
      "lstrip": false,
      "rstrip": false,
      "normalized": false,
      "special": true
    },
    {
      "id": 32052,
      "content": "<|reserved_special_token_44|>",
      "single_word": false,
      "lstrip": false,
      "rstrip": false,
      "normalized": false,
      "special": true
    },
    {
      "id": 32053,
      "content": "<|reserved_special_token_45|>",
      "single_word": false,
      "lstrip": false,
      "rstrip": false,
      "normalized": false,
      "special": true
    },
    {
      "id": 32054,
      "content": "<|reserved_special_token_46|>",
      "single_word": false,
      "lstrip": false,
      "rstrip": false,
      "normalized": false,
      "special": true
    },
    {
      "id": 32055,
      "content": "<|reserved_special_token_47|>",
      "single_word": false,
      "lstrip": false,
      "rstrip": false,
      "normalized": false,
      "special": true
    },
    {
      "id": 32056,
      "content": "<|reserved_special_token_48|>",
      "single_word": false,
      "lstrip": false,
      "rstrip": false,
      "normalized": false,
      "special": true
    },
    {
      "id": 32057,
      "content": "<|reserved_special_token_49|>",
      "single_word": false,
      "lstrip": false,
      "rstrip": false,
      "normalized": false,
      "special": true
    },
    {
      "id": 32058,
      "content": "<|reserved_special_token_50|>",
      "single_word": false,
      "lstrip": false,
      "rstrip": false,
      "normalized": false,
      "special": true
    },
    {
      "id": 32059,
      "content": "<|reserved_special_token_51|>",
      "single_word": false,
      "lstrip": false,
      "rstrip": false,
      "normalized": false,
      "special": true
    },
    {
      "id": 32060,
      "content": "<|reserved_special_token_52|>",
      "single_word": false,
      "lstrip": false,
      "rstrip": false,
      "normalized": false,
      "special": true
    },
    {
      "id": 32061,
      "content": "<|reserved_special_token_53|>",
      "single_word": false,
      "lstrip": false,
      "rstrip": false,
      "normalized": false,
      "special": true
    },
    {
      "id": 32062,
      "content": "<|reserved_special_token_54|>",
      "single_word": false,
      "lstrip": false,
      "rstrip": false,
      "normalized": false,
      "special": true
    },
    {
      "id": 32063,
      "content": "<|reserved_special_token_55|>",
      "single_word": false,
      "lstrip": false,
      "rstrip": false,
      "normalized": false,
      "special": true
    },
    {
      "id": 32064,
      "content": "<|reserved_special_token_56|>",
      "single_word": false,
      "lstrip": false,
      "rstrip": false,
      "normalized": false,
      "special": true
    },
    {
      "id": 32065,
      "content": "<|reserved_special_token_57|>",
      "single_word": false,
      "lstrip": false,
      "rstrip": false,
      "normalized": false,
      "special": true
    },
    {
      "id": 32066,
      "content": "<|reserved_special_token_58|>",
      "single_word": false,
      "lstrip": false,
      "rstrip": false,
      "normalized": false,
      "special": true
    },
    {
      "id": 32067,
      "content": "<|reserved_special_token_59|>",
      "single_word": false,
      "lstrip": false,
      "rstrip": false,
      "normalized": false,
      "special": true
    },
    {
      "id": 32068,
      "content": "<|reserved_special_token_60|>",
      "single_word": false,
      "lstrip": false,
      "rstrip": false,
      "normalized": false,
      "special": true
    },
    {
      "id": 32069,
      "content": "<|reserved_special_token_61|>",
      "single_word": false,
      "lstrip": false,
      "rstrip": false,
      "normalized": false,
      "special": true
    },
    {
      "id": 32070,
      "content": "<|reserved_special_token_62|>",
      "single_word": false,
      "lstrip": false,
      "rstrip": false,
      "normalized": false,
      "special": true
    },
    {
      "id": 32071,
      "content": "<|reserved_special_token_63|>",
      "single_word": false,
      "lstrip": false,
      "rstrip": false,
      "normalized": false,
      "special": true
    },
    {
      "id": 32072,
      "content": "<|reserved_special_token_64|>",
      "single_word": false,
      "lstrip": false,
      "rstrip": false,
      "normalized": false,
      "special": true
    },
    {
      "id": 32073,
      "content": "<|reserved_special_token_65|>",
      "single_word": false,
      "lstrip": false,
      "rstrip": false,
      "normalized": false,
      "special": true
    },
    {
      "id": 32074,
      "content": "<|reserved_special_token_66|>",
      "single_word": false,
      "lstrip": false,
      "rstrip": false,
      "normalized": false,
      "special": true
    },
    {
      "id": 32075,
      "content": "<|reserved_special_token_67|>",
      "single_word": false,
      "lstrip": false,
      "rstrip": false,
      "normalized": false,
      "special": true
    },
    {
      "id": 32076,
      "content": "<|reserved_special_token_68|>",
      "single_word": false,
      "lstrip": false,
      "rstrip": false,
      "normalized": false,
      "special": true
    },
    {
      "id": 32077,
      "content": "<|reserved_special_token_69|>",
      "single_word": false,
      "lstrip": false,
      "rstrip": false,
      "normalized": false,
      "special": true
    },
    {
      "id": 32078,
      "content": "<|reserved_special_token_70|>",
      "single_word": false,
      "lstrip": false,
      "rstrip": false,
      "normalized": false,
      "special": true
    },
    {
      "id": 32079,
      "content": "<|reserved_special_token_71|>",
      "single_word": false,
      "lstrip": false,
      "rstrip": false,
      "normalized": false,
      "special": true
    },
    {
      "id": 32080,
      "content": "<|reserved_special_token_72|>",
      "single_word": false,
      "lstrip": false,
      "rstrip": false,
      "normalized": false,
      "special": true
    },
    {
      "id": 32081,
      "content": "<|reserved_special_token_73|>",
      "single_word": false,
      "lstrip": false,
      "rstrip": false,
      "normalized": false,
      "special": true
    },
    {
      "id": 32082,
      "content": "<|reserved_special_token_74|>",
      "single_word": false,
      "lstrip": false,
      "rstrip": false,
      "normalized": false,
      "special": true
    },
    {
      "id": 32083,
      "content": "<|reserved_special_token_75|>",
      "single_word": false,
      "lstrip": false,
      "rstrip": false,
      "normalized": false,
      "special": true
    },
    {
      "id": 32084,
      "content": "<|reserved_special_token_76|>",
      "single_word": false,
      "lstrip": false,
      "rstrip": false,
      "normalized": false,
      "special": true
    },
    {
      "id": 32085,
      "content": "<|reserved_special_token_77|>",
      "single_word": false,
      "lstrip": false,
      "rstrip": false,
      "normalized": false,
      "special": true
    },
    {
      "id": 32086,
      "content": "<|reserved_special_token_78|>",
      "single_word": false,
      "lstrip": false,
      "rstrip": false,
      "normalized": false,
      "special": true
    },
    {
      "id": 32087,
      "content": "<|reserved_special_token_79|>",
      "single_word": false,
      "lstrip": false,
      "rstrip": false,
      "normalized": false,
      "special": true
    },
    {
      "id": 32088,
      "content": "<|reserved_special_token_80|>",
      "single_word": false,
      "lstrip": false,
      "rstrip": false,
      "normalized": false,
      "special": true
    },
    {
      "id": 32089,
      "content": "<|reserved_special_token_81|>",
      "single_word": false,
      "lstrip": false,
      "rstrip": false,
      "normalized": false,
      "special": true
    },
    {
      "id": 32090,
      "content": "<|reserved_special_token_82|>",
      "single_word": false,
      "lstrip": false,
      "rstrip": false,
      "normalized": false,
      "special": true
    },
    {
      "id": 32091,
      "content": "<|reserved_special_token_83|>",
      "single_word": false,
      "lstrip": false,
      "rstrip": false,
      "normalized": false,
      "special": true
    },
    {
      "id": 32092,
      "content": "<|reserved_special_token_84|>",
      "single_word": false,
      "lstrip": false,
      "rstrip": false,
      "normalized": false,
      "special": true
    },
    {
      "id": 32093,
      "content": "<|reserved_special_token_85|>",
      "single_word": false,
      "lstrip": false,
      "rstrip": false,
      "normalized": false,
      "special": true
    },
    {
      "id": 32094,
      "content": "<|reserved_special_token_86|>",
      "single_word": false,
      "lstrip": false,
      "rstrip": false,
      "normalized": false,
      "special": true
    },
    {
      "id": 32095,
      "content": "<|reserved_special_token_87|>",
      "single_word": false,
      "lstrip": false,
      "rstrip": false,
      "normalized": false,
      "special": true
    },
    {
      "id": 32096,
      "content": "<|reserved_special_token_88|>",
      "single_word": false,
      "lstrip": false,
      "rstrip": false,
      "normalized": false,
      "special": true
    },
    {
      "id": 32097,
      "content": "<|reserved_special_token_89|>",
      "single_word": false,
      "lstrip": false,
      "rstrip": false,
      "normalized": false,
      "special": true
    },
    {
      "id": 32098,
      "content": "<|reserved_special_token_90|>",
      "single_word": false,
      "lstrip": false,
      "rstrip": false,
      "normalized": false,
      "special": true
    },
    {
      "id": 32099,
      "content": "<|reserved_special_token_91|>",
      "single_word": false,
      "lstrip": false,
      "rstrip": false,
      "normalized": false,
      "special": true
    },
    {
      "id": 32100,
      "content": "<|reserved_special_token_92|>",
      "single_word": false,
      "lstrip": false,
      "rstrip": false,
      "normalized": false,
      "special": true
    },
    {
      "id": 32101,
      "content": "<|reserved_special_token_93|>",
      "single_word": false,
      "lstrip": false,
      "rstrip": false,
      "normalized": false,
      "special": true
    },
    {
      "id": 32102,
      "content": "<|reserved_special_token_94|>",
      "single_word": false,
      "lstrip": false,
      "rstrip": false,
      "normalized": false,
      "special": true
    },
    {
      "id": 32103,
      "content": "<|reserved_special_token_95|>",
      "single_word": false,
      "lstrip": false,
      "rstrip": false,
      "normalized": false,
      "special": true
    },
    {
      "id": 32104,
      "content": "<|reserved_special_token_96|>",
      "single_word": false,
      "lstrip": false,
      "rstrip": false,
      "normalized": false,
      "special": true
    },
    {
      "id": 32105,
      "content": "<|reserved_special_token_97|>",
      "single_word": false,
      "lstrip": false,
      "rstrip": false,
      "normalized": false,
      "special": true
    },
    {
      "id": 32106,
      "content": "<|reserved_special_token_98|>",
      "single_word": false,
      "lstrip": false,
      "rstrip": false,
      "normalized": false,
      "special": true
    },
    {
      "id": 32107,
      "content": "<|reserved_special_token_99|>",
      "single_word": false,
      "lstrip": false,
      "rstrip": false,
      "normalized": false,
      "special": true
    },
    {
      "id": 32108,
      "content": "<|reserved_special_token_100|>",
      "single_word": false,
      "lstrip": false,
      "rstrip": false,
      "normalized": false,
      "special": true
    },
    {
      "id": 32109,
      "content": "<|reserved_special_token_101|>",
      "single_word": false,
      "lstrip": false,
      "rstrip": false,
      "normalized": false,
      "special": true
    },
    {
      "id": 32110,
      "content": "<|reserved_special_token_102|>",
      "single_word": false,
      "lstrip": false,
      "rstrip": false,
      "normalized": false,
      "special": true
    },
    {
      "id": 32111,
      "content": "<|reserved_special_token_103|>",
      "single_word": false,
      "lstrip": false,
      "rstrip": false,
      "normalized": false,
      "special": true
    },
    {
      "id": 32112,
      "content": "<|reserved_special_token_104|>",
      "single_word": false,
      "lstrip": false,
      "rstrip": false,
      "normalized": false,
      "special": true
    },
    {
      "id": 32113,
      "content": "<|reserved_special_token_105|>",
      "single_word": false,
      "lstrip": false,
      "rstrip": false,
      "normalized": false,
      "special": true
    },
    {
      "id": 32114,
      "content": "<|reserved_special_token_106|>",
      "single_word": false,
      "lstrip": false,
      "rstrip": false,
      "normalized": false,
      "special": true
    },
    {
      "id": 32115,
      "content": "<|reserved_special_token_107|>",
      "single_word": false,
      "lstrip": false,
      "rstrip": false,
      "normalized": false,
      "special": true
    },
    {
      "id": 32116,
      "content": "<|reserved_special_token_108|>",
      "single_word": false,
      "lstrip": false,
      "rstrip": false,
      "normalized": false,
      "special": true
    },
    {
      "id": 32117,
      "content": "<|reserved_special_token_109|>",
      "single_word": false,
      "lstrip": false,
      "rstrip": false,
      "normalized": false,
      "special": true
    },
    {
      "id": 32118,
      "content": "<|reserved_special_token_110|>",
      "single_word": false,
      "lstrip": false,
      "rstrip": false,
      "normalized": false,
      "special": true
    },
    {
      "id": 32119,
      "content": "<|reserved_special_token_111|>",
      "single_word": false,
      "lstrip": false,
      "rstrip": false,
      "normalized": false,
      "special": true
    },
    {
      "id": 32120,
      "content": "<|reserved_special_token_112|>",
      "single_word": false,
      "lstrip": false,
      "rstrip": false,
      "normalized": false,
      "special": true
    },
    {
      "id": 32121,
      "content": "<|reserved_special_token_113|>",
      "single_word": false,
      "lstrip": false,
      "rstrip": false,
      "normalized": false,
      "special": true
    },
    {
      "id": 32122,
      "content": "<|reserved_special_token_114|>",
      "single_word": false,
      "lstrip": false,
      "rstrip": false,
      "normalized": false,
      "special": true
    },
    {
      "id": 32123,
      "content": "<|reserved_special_token_115|>",
      "single_word": false,
      "lstrip": false,
      "rstrip": false,
      "normalized": false,
      "special": true
    },
    {
      "id": 32124,
      "content": "<|reserved_special_token_116|>",
      "single_word": false,
      "lstrip": false,
      "rstrip": false,
      "normalized": false,
      "special": true
    },
    {
      "id": 32125,
      "content": "<|reserved_special_token_117|>",
      "single_word": false,
      "lstrip": false,
      "rstrip": false,
      "normalized": false,
      "special": true
    },
    {
      "id": 32126,
      "content": "<|reserved_special_token_118|>",
      "single_word": false,
      "lstrip": false,
      "rstrip": false,
      "normalized": false,
      "special": true
    },
    {
      "id": 32127,
      "content": "<|reserved_special_token_119|>",
      "single_word": false,
      "lstrip": false,
      "rstrip": false,
      "normalized": false,
      "special": true
    },
    {
      "id": 32128,
      "content": "<|reserved_special_token_120|>",
      "single_word": false,
      "lstrip": false,
      "rstrip": false,
      "normalized": false,
      "special": true
    },
    {
      "id": 32129,
      "content": "<|reserved_special_token_121|>",
      "single_word": false,
      "lstrip": false,
      "rstrip": false,
      "normalized": false,
      "special": true
    },
    {
      "id": 32130,
      "content": "<|reserved_special_token_122|>",
      "single_word": false,
      "lstrip": false,
      "rstrip": false,
      "normalized": false,
      "special": true
    },
    {
      "id": 32131,
      "content": "<|reserved_special_token_123|>",
      "single_word": false,
      "lstrip": false,
      "rstrip": false,
      "normalized": false,
      "special": true
    },
    {
      "id": 32132,
      "content": "<|reserved_special_token_124|>",
      "single_word": false,
      "lstrip": false,
      "rstrip": false,
      "normalized": false,
      "special": true
    },
    {
      "id": 32133,
      "content": "<|reserved_special_token_125|>",
      "single_word": false,
      "lstrip": false,
      "rstrip": false,
      "normalized": false,
      "special": true
    },
    {
      "id": 32134,
      "content": "<|reserved_special_token_126|>",
      "single_word": false,
      "lstrip": false,
      "rstrip": false,
      "normalized": false,
      "special": true
    },
    {
      "id": 32135,
      "content": "<|reserved_special_token_127|>",
      "single_word": false,
      "lstrip": false,
      "rstrip": false,
      "normalized": false,
      "special": true
    },
    {
      "id": 32136,
      "content": "<|reserved_special_token_128|>",
      "single_word": false,
      "lstrip": false,
      "rstrip": false,
      "normalized": false,
      "special": true
    },
    {
      "id": 32137,
      "content": "<|reserved_special_token_129|>",
      "single_word": false,
      "lstrip": false,
      "rstrip": false,
      "normalized": false,
      "special": true
    },
    {
      "id": 32138,
      "content": "<|reserved_special_token_130|>",
      "single_word": false,
      "lstrip": false,
      "rstrip": false,
      "normalized": false,
      "special": true
    },
    {
      "id": 32139,
      "content": "<|reserved_special_token_131|>",
      "single_word": false,
      "lstrip": false,
      "rstrip": false,
      "normalized": false,
      "special": true
    },
    {
      "id": 32140,
      "content": "<|reserved_special_token_132|>",
      "single_word": false,
      "lstrip": false,
      "rstrip": false,
      "normalized": false,
      "special": true
    },
    {
      "id": 32141,
      "content": "<|reserved_special_token_133|>",
      "single_word": false,
      "lstrip": false,
      "rstrip": false,
      "normalized": false,
      "special": true
    },
    {
      "id": 32142,
      "content": "<|reserved_special_token_134|>",
      "single_word": false,
      "lstrip": false,
      "rstrip": false,
      "normalized": false,
      "special": true
    },
    {
      "id": 32143,
      "content": "<|reserved_special_token_135|>",
      "single_word": false,
      "lstrip": false,
      "rstrip": false,
      "normalized": false,
      "special": true
    },
    {
      "id": 32144,
      "content": "<|reserved_special_token_136|>",
      "single_word": false,
      "lstrip": false,
      "rstrip": false,
      "normalized": false,
      "special": true
    },
    {
      "id": 32145,
      "content": "<|reserved_special_token_137|>",
      "single_word": false,
      "lstrip": false,
      "rstrip": false,
      "normalized": false,
      "special": true
    },
    {
      "id": 32146,
      "content": "<|reserved_special_token_138|>",
      "single_word": false,
      "lstrip": false,
      "rstrip": false,
      "normalized": false,
      "special": true
    },
    {
      "id": 32147,
      "content": "<|reserved_special_token_139|>",
      "single_word": false,
      "lstrip": false,
      "rstrip": false,
      "normalized": false,
      "special": true
    },
    {
      "id": 32148,
      "content": "<|reserved_special_token_140|>",
      "single_word": false,
      "lstrip": false,
      "rstrip": false,
      "normalized": false,
      "special": true
    },
    {
      "id": 32149,
      "content": "<|reserved_special_token_141|>",
      "single_word": false,
      "lstrip": false,
      "rstrip": false,
      "normalized": false,
      "special": true
    },
    {
      "id": 32150,
      "content": "<|reserved_special_token_142|>",
      "single_word": false,
      "lstrip": false,
      "rstrip": false,
      "normalized": false,
      "special": true
    },
    {
      "id": 32151,
      "content": "<|reserved_special_token_143|>",
      "single_word": false,
      "lstrip": false,
      "rstrip": false,
      "normalized": false,
      "special": true
    },
    {
      "id": 32152,
      "content": "<|reserved_special_token_144|>",
      "single_word": false,
      "lstrip": false,
      "rstrip": false,
      "normalized": false,
      "special": true
    },
    {
      "id": 32153,
      "content": "<|reserved_special_token_145|>",
      "single_word": false,
      "lstrip": false,
      "rstrip": false,
      "normalized": false,
      "special": true
    },
    {
      "id": 32154,
      "content": "<|reserved_special_token_146|>",
      "single_word": false,
      "lstrip": false,
      "rstrip": false,
      "normalized": false,
      "special": true
    },
    {
      "id": 32155,
      "content": "<|reserved_special_token_147|>",
      "single_word": false,
      "lstrip": false,
      "rstrip": false,
      "normalized": false,
      "special": true
    },
    {
      "id": 32156,
      "content": "<|reserved_special_token_148|>",
      "single_word": false,
      "lstrip": false,
      "rstrip": false,
      "normalized": false,
      "special": true
    },
    {
      "id": 32157,
      "content": "<|reserved_special_token_149|>",
      "single_word": false,
      "lstrip": false,
      "rstrip": false,
      "normalized": false,
      "special": true
    },
    {
      "id": 32158,
      "content": "<|reserved_special_token_150|>",
      "single_word": false,
      "lstrip": false,
      "rstrip": false,
      "normalized": false,
      "special": true
    },
    {
      "id": 32159,
      "content": "<|reserved_special_token_151|>",
      "single_word": false,
      "lstrip": false,
      "rstrip": false,
      "normalized": false,
      "special": true
    },
    {
      "id": 32160,
      "content": "<|reserved_special_token_152|>",
      "single_word": false,
      "lstrip": false,
      "rstrip": false,
      "normalized": false,
      "special": true
    },
    {
      "id": 32161,
      "content": "<|reserved_special_token_153|>",
      "single_word": false,
      "lstrip": false,
      "rstrip": false,
      "normalized": false,
      "special": true
    },
    {
      "id": 32162,
      "content": "<|reserved_special_token_154|>",
      "single_word": false,
      "lstrip": false,
      "rstrip": false,
      "normalized": false,
      "special": true
    },
    {
      "id": 32163,
      "content": "<|reserved_special_token_155|>",
      "single_word": false,
      "lstrip": false,
      "rstrip": false,
      "normalized": false,
      "special": true
    },
    {
      "id": 32164,
      "content": "<|reserved_special_token_156|>",
      "single_word": false,
      "lstrip": false,
      "rstrip": false,
      "normalized": false,
      "special": true
    },
    {
      "id": 32165,
      "content": "<|reserved_special_token_157|>",
      "single_word": false,
      "lstrip": false,
      "rstrip": false,
      "normalized": false,
      "special": true
    },
    {
      "id": 32166,
      "content": "<|reserved_special_token_158|>",
      "single_word": false,
      "lstrip": false,
      "rstrip": false,
      "normalized": false,
      "special": true
    },
    {
      "id": 32167,
      "content": "<|reserved_special_token_159|>",
      "single_word": false,
      "lstrip": false,
      "rstrip": false,
      "normalized": false,
      "special": true
    },
    {
      "id": 32168,
      "content": "<|reserved_special_token_160|>",
      "single_word": false,
      "lstrip": false,
      "rstrip": false,
      "normalized": false,
      "special": true
    },
    {
      "id": 32169,
      "content": "<|reserved_special_token_161|>",
      "single_word": false,
      "lstrip": false,
      "rstrip": false,
      "normalized": false,
      "special": true
    },
    {
      "id": 32170,
      "content": "<|reserved_special_token_162|>",
      "single_word": false,
      "lstrip": false,
      "rstrip": false,
      "normalized": false,
      "special": true
    },
    {
      "id": 32171,
      "content": "<|reserved_special_token_163|>",
      "single_word": false,
      "lstrip": false,
      "rstrip": false,
      "normalized": false,
      "special": true
    },
    {
      "id": 32172,
      "content": "<|reserved_special_token_164|>",
      "single_word": false,
      "lstrip": false,
      "rstrip": false,
      "normalized": false,
      "special": true
    },
    {
      "id": 32173,
      "content": "<|reserved_special_token_165|>",
      "single_word": false,
      "lstrip": false,
      "rstrip": false,
      "normalized": false,
      "special": true
    },
    {
      "id": 32174,
      "content": "<|reserved_special_token_166|>",
      "single_word": false,
      "lstrip": false,
      "rstrip": false,
      "normalized": false,
      "special": true
    },
    {
      "id": 32175,
      "content": "<|reserved_special_token_167|>",
      "single_word": false,
      "lstrip": false,
      "rstrip": false,
      "normalized": false,
      "special": true
    },
    {
      "id": 32176,
      "content": "<|reserved_special_token_168|>",
      "single_word": false,
      "lstrip": false,
      "rstrip": false,
      "normalized": false,
      "special": true
    },
    {
      "id": 32177,
      "content": "<|reserved_special_token_169|>",
      "single_word": false,
      "lstrip": false,
      "rstrip": false,
      "normalized": false,
      "special": true
    },
    {
      "id": 32178,
      "content": "<|reserved_special_token_170|>",
      "single_word": false,
      "lstrip": false,
      "rstrip": false,
      "normalized": false,
      "special": true
    },
    {
      "id": 32179,
      "content": "<|reserved_special_token_171|>",
      "single_word": false,
      "lstrip": false,
      "rstrip": false,
      "normalized": false,
      "special": true
    },
    {
      "id": 32180,
      "content": "<|reserved_special_token_172|>",
      "single_word": false,
      "lstrip": false,
      "rstrip": false,
      "normalized": false,
      "special": true
    },
    {
      "id": 32181,
      "content": "<|reserved_special_token_173|>",
      "single_word": false,
      "lstrip": false,
      "rstrip": false,
      "normalized": false,
      "special": true
    },
    {
      "id": 32182,
      "content": "<|reserved_special_token_174|>",
      "single_word": false,
      "lstrip": false,
      "rstrip": false,
      "normalized": false,
      "special": true
    },
    {
      "id": 32183,
      "content": "<|reserved_special_token_175|>",
      "single_word": false,
      "lstrip": false,
      "rstrip": false,
      "normalized": false,
      "special": true
    },
    {
      "id": 32184,
      "content": "<|reserved_special_token_176|>",
      "single_word": false,
      "lstrip": false,
      "rstrip": false,
      "normalized": false,
      "special": true
    },
    {
      "id": 32185,
      "content": "<|reserved_special_token_177|>",
      "single_word": false,
      "lstrip": false,
      "rstrip": false,
      "normalized": false,
      "special": true
    },
    {
      "id": 32186,
      "content": "<|reserved_special_token_178|>",
      "single_word": false,
      "lstrip": false,
      "rstrip": false,
      "normalized": false,
      "special": true
    },
    {
      "id": 32187,
      "content": "<|reserved_special_token_179|>",
      "single_word": false,
      "lstrip": false,
      "rstrip": false,
      "normalized": false,
      "special": true
    },
    {
      "id": 32188,
      "content": "<|reserved_special_token_180|>",
      "single_word": false,
      "lstrip": false,
      "rstrip": false,
      "normalized": false,
      "special": true
    },
    {
      "id": 32189,
      "content": "<|reserved_special_token_181|>",
      "single_word": false,
      "lstrip": false,
      "rstrip": false,
      "normalized": false,
      "special": true
    },
    {
      "id": 32190,
      "content": "<|reserved_special_token_182|>",
      "single_word": false,
      "lstrip": false,
      "rstrip": false,
      "normalized": false,
      "special": true
    },
    {
      "id": 32191,
      "content": "<|reserved_special_token_183|>",
      "single_word": false,
      "lstrip": false,
      "rstrip": false,
      "normalized": false,
      "special": true
    },
    {
      "id": 32192,
      "content": "<|reserved_special_token_184|>",
      "single_word": false,
      "lstrip": false,
      "rstrip": false,
      "normalized": false,
      "special": true
    },
    {
      "id": 32193,
      "content": "<|reserved_special_token_185|>",
      "single_word": false,
      "lstrip": false,
      "rstrip": false,
      "normalized": false,
      "special": true
    },
    {
      "id": 32194,
      "content": "<|reserved_special_token_186|>",
      "single_word": false,
      "lstrip": false,
      "rstrip": false,
      "normalized": false,
      "special": true
    },
    {
      "id": 32195,
      "content": "<|reserved_special_token_187|>",
      "single_word": false,
      "lstrip": false,
      "rstrip": false,
      "normalized": false,
      "special": true
    },
    {
      "id": 32196,
      "content": "<|reserved_special_token_188|>",
      "single_word": false,
      "lstrip": false,
      "rstrip": false,
      "normalized": false,
      "special": true
    },
    {
      "id": 32197,
      "content": "<|reserved_special_token_189|>",
      "single_word": false,
      "lstrip": false,
      "rstrip": false,
      "normalized": false,
      "special": true
    },
    {
      "id": 32198,
      "content": "<|reserved_special_token_190|>",
      "single_word": false,
      "lstrip": false,
      "rstrip": false,
      "normalized": false,
      "special": true
    },
    {
      "id": 32199,
      "content": "<|reserved_special_token_191|>",
      "single_word": false,
      "lstrip": false,
      "rstrip": false,
      "normalized": false,
      "special": true
    },
    {
      "id": 32200,
      "content": "<|reserved_special_token_192|>",
      "single_word": false,
      "lstrip": false,
      "rstrip": false,
      "normalized": false,
      "special": true
    },
    {
      "id": 32201,
      "content": "<|reserved_special_token_193|>",
      "single_word": false,
      "lstrip": false,
      "rstrip": false,
      "normalized": false,
      "special": true
    },
    {
      "id": 32202,
      "content": "<|reserved_special_token_194|>",
      "single_word": false,
      "lstrip": false,
      "rstrip": false,
      "normalized": false,
      "special": true
    },
    {
      "id": 32203,
      "content": "<|reserved_special_token_195|>",
      "single_word": false,
      "lstrip": false,
      "rstrip": false,
      "normalized": false,
      "special": true
    },
    {
      "id": 32204,
      "content": "<|reserved_special_token_196|>",
      "single_word": false,
      "lstrip": false,
      "rstrip": false,
      "normalized": false,
      "special": true
    },
    {
      "id": 32205,
      "content": "<|reserved_special_token_197|>",
      "single_word": false,
      "lstrip": false,
      "rstrip": false,
      "normalized": false,
      "special": true
    },
    {
      "id": 32206,
      "content": "<|reserved_special_token_198|>",
      "single_word": false,
      "lstrip": false,
      "rstrip": false,
      "normalized": false,
      "special": true
    },
    {
      "id": 32207,
      "content": "<|reserved_special_token_199|>",
      "single_word": false,
      "lstrip": false,
      "rstrip": false,
      "normalized": false,
      "special": true
    },
    {
      "id": 32208,
      "content": "<|reserved_special_token_200|>",
      "single_word": false,
      "lstrip": false,
      "rstrip": false,
      "normalized": false,
      "special": true
    },
    {
      "id": 32209,
      "content": "<|reserved_special_token_201|>",
      "single_word": false,
      "lstrip": false,
      "rstrip": false,
      "normalized": false,
      "special": true
    },
    {
      "id": 32210,
      "content": "<|reserved_special_token_202|>",
      "single_word": false,
      "lstrip": false,
      "rstrip": false,
      "normalized": false,
      "special": true
    },
    {
      "id": 32211,
      "content": "<|reserved_special_token_203|>",
      "single_word": false,
      "lstrip": false,
      "rstrip": false,
      "normalized": false,
      "special": true
    },
    {
      "id": 32212,
      "content": "<|reserved_special_token_204|>",
      "single_word": false,
      "lstrip": false,
      "rstrip": false,
      "normalized": false,
      "special": true
    },
    {
      "id": 32213,
      "content": "<|reserved_special_token_205|>",
      "single_word": false,
      "lstrip": false,
      "rstrip": false,
      "normalized": false,
      "special": true
    },
    {
      "id": 32214,
      "content": "<|reserved_special_token_206|>",
      "single_word": false,
      "lstrip": false,
      "rstrip": false,
      "normalized": false,
      "special": true
    },
    {
      "id": 32215,
      "content": "<|reserved_special_token_207|>",
      "single_word": false,
      "lstrip": false,
      "rstrip": false,
      "normalized": false,
      "special": true
    },
    {
      "id": 32216,
      "content": "<|reserved_special_token_208|>",
      "single_word": false,
      "lstrip": false,
      "rstrip": false,
      "normalized": false,
      "special": true
    },
    {
      "id": 32217,
      "content": "<|reserved_special_token_209|>",
      "single_word": false,
      "lstrip": false,
      "rstrip": false,
      "normalized": false,
      "special": true
    },
    {
      "id": 32218,
      "content": "<|reserved_special_token_210|>",
      "single_word": false,
      "lstrip": false,
      "rstrip": false,
      "normalized": false,
      "special": true
    },
    {
      "id": 32219,
      "content": "<|reserved_special_token_211|>",
      "single_word": false,
      "lstrip": false,
      "rstrip": false,
      "normalized": false,
      "special": true
    },
    {
      "id": 32220,
      "content": "<|reserved_special_token_212|>",
      "single_word": false,
      "lstrip": false,
      "rstrip": false,
      "normalized": false,
      "special": true
    },
    {
      "id": 32221,
      "content": "<|reserved_special_token_213|>",
      "single_word": false,
      "lstrip": false,
      "rstrip": false,
      "normalized": false,
      "special": true
    },
    {
      "id": 32222,
      "content": "<|reserved_special_token_214|>",
      "single_word": false,
      "lstrip": false,
      "rstrip": false,
      "normalized": false,
      "special": true
    },
    {
      "id": 32223,
      "content": "<|reserved_special_token_215|>",
      "single_word": false,
      "lstrip": false,
      "rstrip": false,
      "normalized": false,
      "special": true
    },
    {
      "id": 32224,
      "content": "<|reserved_special_token_216|>",
      "single_word": false,
      "lstrip": false,
      "rstrip": false,
      "normalized": false,
      "special": true
    },
    {
      "id": 32225,
      "content": "<|reserved_special_token_217|>",
      "single_word": false,
      "lstrip": false,
      "rstrip": false,
      "normalized": false,
      "special": true
    },
    {
      "id": 32226,
      "content": "<|reserved_special_token_218|>",
      "single_word": false,
      "lstrip": false,
      "rstrip": false,
      "normalized": false,
      "special": true
    },
    {
      "id": 32227,
      "content": "<|reserved_special_token_219|>",
      "single_word": false,
      "lstrip": false,
      "rstrip": false,
      "normalized": false,
      "special": true
    },
    {
      "id": 32228,
      "content": "<|reserved_special_token_220|>",
      "single_word": false,
      "lstrip": false,
      "rstrip": false,
      "normalized": false,
      "special": true
    },
    {
      "id": 32229,
      "content": "<|reserved_special_token_221|>",
      "single_word": false,
      "lstrip": false,
      "rstrip": false,
      "normalized": false,
      "special": true
    },
    {
      "id": 32230,
      "content": "<|reserved_special_token_222|>",
      "single_word": false,
      "lstrip": false,
      "rstrip": false,
      "normalized": false,
      "special": true
    },
    {
      "id": 32231,
      "content": "<|reserved_special_token_223|>",
      "single_word": false,
      "lstrip": false,
      "rstrip": false,
      "normalized": false,
      "special": true
    },
    {
      "id": 32232,
      "content": "<|reserved_special_token_224|>",
      "single_word": false,
      "lstrip": false,
      "rstrip": false,
      "normalized": false,
      "special": true
    },
    {
      "id": 32233,
      "content": "<|reserved_special_token_225|>",
      "single_word": false,
      "lstrip": false,
      "rstrip": false,
      "normalized": false,
      "special": true
    },
    {
      "id": 32234,
      "content": "<|reserved_special_token_226|>",
      "single_word": false,
      "lstrip": false,
      "rstrip": false,
      "normalized": false,
      "special": true
    },
    {
      "id": 32235,
      "content": "<|reserved_special_token_227|>",
      "single_word": false,
      "lstrip": false,
      "rstrip": false,
      "normalized": false,
      "special": true
    },
    {
      "id": 32236,
      "content": "<|reserved_special_token_228|>",
      "single_word": false,
      "lstrip": false,
      "rstrip": false,
      "normalized": false,
      "special": true
    },
    {
      "id": 32237,
      "content": "<|reserved_special_token_229|>",
      "single_word": false,
      "lstrip": false,
      "rstrip": false,
      "normalized": false,
      "special": true
    },
    {
      "id": 32238,
      "content": "<|reserved_special_token_230|>",
      "single_word": false,
      "lstrip": false,
      "rstrip": false,
      "normalized": false,
      "special": true
    },
    {
      "id": 32239,
      "content": "<|reserved_special_token_231|>",
      "single_word": false,
      "lstrip": false,
      "rstrip": false,
      "normalized": false,
      "special": true
    },
    {
      "id": 32240,
      "content": "<|reserved_special_token_232|>",
      "single_word": false,
      "lstrip": false,
      "rstrip": false,
      "normalized": false,
      "special": true
    },
    {
      "id": 32241,
      "content": "<|reserved_special_token_233|>",
      "single_word": false,
      "lstrip": false,
      "rstrip": false,
      "normalized": false,
      "special": true
    },
    {
      "id": 32242,
      "content": "<|reserved_special_token_234|>",
      "single_word": false,
      "lstrip": false,
      "rstrip": false,
      "normalized": false,
      "special": true
    },
    {
      "id": 32243,
      "content": "<|reserved_special_token_235|>",
      "single_word": false,
      "lstrip": false,
      "rstrip": false,
      "normalized": false,
      "special": true
    },
    {
      "id": 32244,
      "content": "<|reserved_special_token_236|>",
      "single_word": false,
      "lstrip": false,
      "rstrip": false,
      "normalized": false,
      "special": true
    },
    {
      "id": 32245,
      "content": "<|reserved_special_token_237|>",
      "single_word": false,
      "lstrip": false,
      "rstrip": false,
      "normalized": false,
      "special": true
    },
    {
      "id": 32246,
      "content": "<|reserved_special_token_238|>",
      "single_word": false,
      "lstrip": false,
      "rstrip": false,
      "normalized": false,
      "special": true
    },
    {
      "id": 32247,
      "content": "<|reserved_special_token_239|>",
      "single_word": false,
      "lstrip": false,
      "rstrip": false,
      "normalized": false,
      "special": true
    },
    {
      "id": 32248,
      "content": "<|reserved_special_token_240|>",
      "single_word": false,
      "lstrip": false,
      "rstrip": false,
      "normalized": false,
      "special": true
    },
    {
      "id": 32249,
      "content": "<|reserved_special_token_241|>",
      "single_word": false,
      "lstrip": false,
      "rstrip": false,
      "normalized": false,
      "special": true
    },
    {
      "id": 32250,
      "content": "<|reserved_special_token_242|>",
      "single_word": false,
      "lstrip": false,
      "rstrip": false,
      "normalized": false,
      "special": true
    },
    {
      "id": 32251,
      "content": "<|reserved_special_token_243|>",
      "single_word": false,
      "lstrip": false,
      "rstrip": false,
      "normalized": false,
      "special": true
    },
    {
      "id": 32252,
      "content": "<|reserved_special_token_244|>",
      "single_word": false,
      "lstrip": false,
      "rstrip": false,
      "normalized": false,
      "special": true
    },
    {
      "id": 32253,
      "content": "<|reserved_special_token_245|>",
      "single_word": false,
      "lstrip": false,
      "rstrip": false,
      "normalized": false,
      "special": true
    },
    {
      "id": 32254,
      "content": "<|reserved_special_token_246|>",
      "single_word": false,
      "lstrip": false,
      "rstrip": false,
      "normalized": false,
      "special": true
    },
    {
      "id": 32255,
      "content": "<|reserved_special_token_247|>",
      "single_word": false,
      "lstrip": false,
      "rstrip": false,
      "normalized": false,
      "special": true
    }
  ],
  "normalizer": null,
  "pre_tokenizer": {
    "type": "Sequence",
    "pretokenizers": [
      {
        "type": "Split",
        "pattern": {
          "Regex": "(?i:'s|'t|'re|'ve|'m|'ll|'d)|[^\\r\\n\\p{L}\\p{N}]?\\p{L}+|\\p{N}{1,3}| ?[^\\s\\p{L}\\p{N}]+[\\r\\n]*|\\s*[\\r\\n]+|\\s+(?!\\S)|\\s+"
        },
        "behavior": "Isolated",
        "invert": false
      },
      {
        "type": "ByteLevel",
        "add_prefix_space": false,
        "trim_offsets": true,
        "use_regex": false
      }
    ]
  },
  "post_processor": {
    "type": "Sequence",
    "processors": [
      {
        "type": "ByteLevel",
        "add_prefix_space": true,
        "trim_offsets": false,
        "use_regex": true
      },
      {
        "type": "TemplateProcessing",
        "single": [
          {
            "SpecialToken": {
              "id": "<|begin_of_text|>",
              "type_id": 0
            }
          },
          {
            "Sequence": {
              "id": "A",
              "type_id": 0
            }
          }
        ],
        "pair": [
          {
            "SpecialToken": {
              "id": "<|begin_of_text|>",
              "type_id": 0
            }
          },
          {
            "Sequence": {
              "id": "A",
              "type_id": 0
            }
          },
          {
            "SpecialToken": {
              "id": "<|begin_of_text|>",
              "type_id": 1
            }
          },
          {
            "Sequence": {
              "id": "B",
              "type_id": 1
            }
          }
        ],
        "special_tokens": {
          "<|begin_of_text|>": {
            "id": "<|begin_of_text|>",
            "ids": [
              32000
            ],
            "tokens": [
              "<|begin_of_text|>"
            ]
          }
        }
      }
    ]
  },
  "decoder": {
    "type": "ByteLevel",
    "add_prefix_space": true,
    "trim_offsets": true,
    "use_regex": true
  },
  "model": {
    "type": "BPE",
    "dropout": null,
    "unk_token": null,
    "continuing_subword_prefix": null,
    "end_of_word_suffix": null,
    "fuse_unk": false,
    "byte_fallback": false,
    "ignore_merges": true,
    "vocab": {
      "!": 792,
      "\"": 72,
      "#": 1192,
      "$": 1747,
      "%": 735,
      "&": 2495,
      "'": 215,
      "(": 1167,
      ")": 64,
      "*": 162,
      "+": 492,
      ",": 0,
      "-": 88,
      ".": 6,
      "/": 106,
      "0": 165,
      "1": 55,
      "2": 62,
      "3": 43,
      "4": 158,
      "5": 201,
      "6": 466,
      "7": 420,
      "8": 423,
      "9": 692,
      ":": 14,
      ";": 97,
      "<": 669,
      "=": 1682,
      ">": 4,
      "?": 233,
      "@": 885,
      "A": 816,
      "B": 392,
      "C": 760,
      "D": 980,
      "E": 263,
      "F": 1236,
      "G": 1011,
      "H": 1171,
      "I": 942,
      "J": 1756,
      "K": 965,
      "L": 1218,
      "M": 1291,
      "N": 470,
      "O": 1495,
      "P": 988,
      "Q": 3294,
      "R": 1295,
      "S": 111,
      "T": 1235,
      "U": 635,
      "V": 1501,
      "W": 1117,
      "X": 2966,
      "Y": 2680,
      "Z": 3154,
      "[": 2605,
      "\\": 2627,
      "]": 1987,
      "^": 4718,
      "_": 892,
      "`": 440,
      "a": 193,
      "b": 21,
      "c": 1511,
      "d": 1345,
      "e": 633,
      "f": 696,
      "g": 1190,
      "h": 41,
      "i": 616,
      "j": 1665,
      "k": 459,
      "l": 1588,
      "m": 216,
      "n": 134,
      "o": 948,
      "p": 9,
      "q": 5294,
      "r": 1206,
      "s": 85,
      "t": 1197,
      "u": 779,
      "v": 1210,
      "w": 945,
      "x": 1137,
      "y": 1313,
      "z": 686,
      "{": 5270,
      "|": 3140,
      "}": 3325,
      "~": 2356,
      "¡": 4512,
      "¢": 6494,
      "£": 10613,
      "¤": 3920,
      "¥": 13793,
      "¦": 11606,
      "§": 8374,
      "¨": 10232,
      "©": 9047,
      "ª": 9496,
      "«": 11593,
      "¬": 13533,
      "®": 7874,
      "¯": 9514,
      "°": 10280,
      "±": 9881,
      "²": 12873,
      "³": 14653,
      "´": 4652,
      "µ": 14242,
      "¶": 11583,
      "·": 7504,
      "¸": 14274,
      "¹": 12825,
      "º": 12020,
      "»": 17719,
      "¼": 9979,
      "½": 17526,
      "¾": 10286,
      "¿": 8512,
      "Ä": 27969,
      "Ç": 24179,
      "È": 21830,
      "Ê": 20255,
      "Ï": 25972,
      "Ñ": 31908,
      "×": 12487,
      "ë": 18071,
      "í": 15914,
      "ĉ": 619,
      "Ċ": 34,
      "Ġ": 15,
      "Ģ": 13101,
      "ģ": 21401,
      "Ĥ": 19287,
      "ĥ": 8945,
      "Ħ": 10866,
      "ħ": 7210,
      "Ĩ": 12390,
      "ĩ": 4240,
      "Ī": 12949,
      "ī": 16099,
      "Ĭ": 9727,
      "ĭ": 12391,
      "Į": 5782,
      "į": 6605,
      "İ": 16894,
      "ı": 14545,
      "Ĳ": 6216,
      "ĳ": 14033,
      "Ĵ": 7053,
      "ĵ": 5762,
      "Ķ": 8380,
      "ķ": 11684,
      "ĸ": 19411,
      "Ĺ": 13202,
      "ĺ": 10933,
      "Ļ": 14497,
      "ļ": 18910,
      "Ľ": 14381,
      "ľ": 11588,
      "Ŀ": 15291,
      "ŀ": 10438,
      "Ł": 8290,
      "ł": 8907,
      "Ń": 13113,
      "ĠĠ": 890,
      "ĠĠĠĠ": 2151,
      "in": 652,
      "Ġt": 1577,
      "ĠĠĠĠĠĠĠĠ": 11158,
      "er": 444,
      "ĠĠĠ": 206,
      "on": 1240,
      "Ġa": 8,
      "re": 881,
      "at": 860,
      "st": 574,
      "en": 157,
      "or": 902,
      "Ġth": 12042,
      "ĊĊ": 729,
      "Ġc": 1558,
      "le": 883,
      "Ġs": 1420,
      "it": 1021,
      "an": 1060,
      "ar": 575,
      "al": 568,
      "Ġthe": 2,
      ";Ċ": 1048,
      "Ġp": 1853,
      "Ġf": 1488,
      "ou": 2352,
      "Ġ=": 362,
      "is": 874,
      "ĠĠĠĠĠĠĠ": 468,
      "ing": 93,
      "es": 556,
      "Ġw": 1381,
      "ion": 2247,
      "ed": 718,
      "ic": 1139,
      "Ġb": 1413,
      "Ġd": 500,
      "et": 966,
      "Ġm": 1775,
      "Ġo": 1211,
      "ro": 1868,
      "as": 941,
      "el": 1195,
      "ct": 7889,
      "nd": 3997,
      "Ġin": 11,
      "Ġh": 1592,
      "ent": 993,
      "id": 1288,
      "Ġn": 1933,
      "am": 1125,
      "ĠĠĠĠĠĠĠĠĠĠĠ": 1169,
      "Ġto": 7,
      "Ġre": 410,
      "--": 5882,
      "Ġ{": 1919,
      "Ġof": 10,
      "om": 1644,
      ");Ċ": 1701,
      "im": 1016,
      "Ġ(": 25,
      "il": 1029,
      "//": 2917,
      "Ġand": 1,
      "ur": 1333,
      "se": 1617,
      "Ġl": 600,
      "ex": 4496,
      "ĠS": 662,
      "ad": 2038,
      "Ġ\"": 37,
      "ch": 767,
      "ut": 1337,
      "if": 1424,
      "**": 160,
      "Ġ}": 3942,
      "em": 217,
      "ol": 801,
      "ĠĠĠĠĠĠĠĠĠĠĠĠĠĠĠĠ": 26221,
      "th": 1298,
      ")Ċ": 65,
      "Ġ{Ċ": 720,
      "Ġg": 1837,
      "ig": 896,
      "iv": 2057,
      ",Ċ": 2080,
      "ce": 4151,
      "od": 3253,
      "Ġv": 1729,
      "ate": 437,
      "ĠT": 124,
      "ag": 1735,
      "ay": 5150,
      "Ġ*": 937,
      "ot": 2044,
      "us": 828,
      "ĠC": 646,
      "Ġst": 2108,
      "ĠI": 192,
      "un": 1815,
      "ul": 32,
      "ue": 2825,
      "ĠA": 183,
      "ow": 7866,
      "Ġ'": 726,
      "ew": 2437,
      "Ġ<": 16,
      "ation": 707,
      "()": 2406,
      "Ġfor": 19,
      "ab": 1738,
      "ort": 2281,
      "um": 1163,
      "ame": 5785,
      "Ġis": 24,
      "pe": 4023,
      "tr": 1603,
      "ck": 3218,
      "âĢ": 25479,
      "Ġy": 1100,
      "ist": 665,
      ".ĊĊ": 86,
      "he": 2017,
      "Ġe": 632,
      "lo": 3882,
      "ĠM": 908,
      "Ġbe": 38,
      "ers": 448,
      "Ġon": 50,
      "Ġcon": 1888,
      "ap": 2025,
      "ub": 3144,
      "ĠP": 877,
      "ĠĠĠĠĠĠĠĠĠĠĠĠĠĠĠ": 2316,
      "ass": 2264,
      "int": 2701,
      ">Ċ": 228,
      "ly": 243,
      "urn": 11491,
      "Ġ$": 194,
      ";ĊĊ": 4383,
      "av": 2862,
      "port": 2294,
      "ir": 1267,
      "->": 4203,
      "nt": 1640,
      "ction": 17657,
      "end": 588,
      "Ġde": 102,
      "00": 408,
      "ith": 9053,
      "out": 3902,
      "our": 1974,
      "ĠĠĠĠĠ": 1659,
      "lic": 6801,
      "res": 2447,
      "pt": 3199,
      "==": 28632,
      "Ġthis": 71,
      "Ġwh": 12735,
      "Ġif": 156,
      "ĠD": 863,
      "ver": 1027,
      "age": 943,
      "ĠB": 611,
      "ht": 3693,
      "ext": 17006,
      "=\"": 1509,
      "Ġthat": 31,
      "****": 31127,
      "ĠR": 970,
      "Ġit": 76,
      "ess": 1425,
      "ĠF": 736,
      "Ġr": 2192,
      "os": 992,
      "and": 262,
      "Ġas": 39,
      "ect": 8248,
      "ke": 1709,
      "rom": 3620,
      "Ġ//": 1324,
      "con": 6964,
      "ĠL": 811,
      "(\"": 1802,
      "qu": 2348,
      "lass": 11056,
      "Ġwith": 13,
      "iz": 2629,
      "de": 1493,
      "ĠN": 1086,
      "Ġal": 2579,
      "op": 1985,
      "up": 2668,
      "get": 4918,
      "Ġ}Ċ": 1656,
      "ile": 1621,
      "Ġan": 40,
      "ata": 4212,
      "ore": 4169,
      "ri": 2711,
      "Ġpro": 2389,
      "ter": 2020,
      "ain": 954,
      "ĠW": 1036,
      "ĠE": 663,
      "Ġcom": 2093,
      "Ġreturn": 256,
      "art": 2784,
      "ĠH": 825,
      "ack": 3514,
      "import": 1566,
      "Ġor": 17,
      "est": 1889,
      "ment": 638,
      "ĠG": 818,
      "able": 1002,
      "Ġ-": 100,
      "ine": 1265,
      "ill": 2664,
      "ind": 3189,
      "ere": 1277,
      "::": 2676,
      "ity": 1209,
      "Ġ+": 998,
      "Ġtr": 5126,
      "elf": 2996,
      "ight": 6033,
      "('": 1618,
      "orm": 12988,
      "ult": 6352,
      "str": 1355,
      "..": 10498,
      "\",": 1506,
      "Ġyou": 42,
      "pl": 2855,
      "Ġnew": 83,
      "Ġj": 1902,
      "ĠĠĠĠĠĠĠĠĠĠĠĠĠĠĠĠĠĠĠ": 5839,
      "Ġfrom": 48,
      "Ġex": 5480,
      "ĠO": 1386,
      "20": 894,
      "ld": 12340,
      "Ġ[": 1721,
      "oc": 2761,
      ":Ċ": 79,
      "Ġse": 1940,
      "Ġle": 754,
      "--------": 31066,
      ".s": 6441,
      "{Ċ": 7252,
      "',": 1526,
      "ant": 1022,
      "Ġat": 127,
      "ase": 9726,
      ".c": 11706,
      "Ġch": 4576,
      "</": 12,
      "ave": 8895,
      "ang": 2109,
      "Ġare": 44,
      "Ġint": 2600,
      "âĢĻ": 18060,
      "_t": 11450,
      "ert": 962,
      "ial": 2351,
      "act": 3602,
      "}Ċ": 457,
      "ive": 913,
      "ode": 6010,
      "ost": 3739,
      "Ġclass": 1553,
      "Ġnot": 22,
      "og": 4088,
      "ord": 4603,
      "all": 3210,
      "ff": 2675,
      "();Ċ": 3609,
      "ont": 3151,
      "ime": 7058,
      "are": 1412,
      "ĠU": 887,
      "Ġpr": 2693,
      "Ġ:": 739,
      "ies": 989,
      "ize": 1397,
      "ure": 675,
      "Ġby": 104,
      "ire": 1784,
      "Ġ}ĊĊ": 3405,
      ".p": 12940,
      "Ġsh": 4787,
      "ice": 3372,
      "ast": 2195,
      "ption": 14887,
      "ok": 5059,
      "__": 6920,
      "cl": 10879,
      "##": 30254,
      "Ġhe": 2212,
      "ard": 4111,
      ").": 808,
      "Ġ@": 3211,
      "iew": 17167,
      "Ġwas": 563,
      "ip": 2636,
      "this": 7406,
      "Ġu": 4455,
      "ĠThe": 103,
      "ide": 2682,
      "ace": 8250,
      "ib": 3439,
      "ac": 1528,
      "rou": 4880,
      "Ġwe": 105,
      "ject": 31911,
      "Ġpublic": 978,
      "ak": 2307,
      "ve": 3289,
      "ath": 3931,
      "oid": 11547,
      "Ġ=>": 3120,
      "ust": 2170,
      "que": 5299,
      "Ġres": 3018,
      "))": 6385,
      "'s": 51,
      "Ġk": 1449,
      "ans": 2189,
      "yst": 9457,
      "Ġi": 1098,
      "Ġus": 467,
      "pp": 11477,
      "10": 566,
      "one": 4109,
      "ail": 7810,
      "name": 3404,
      "Ġstr": 4636,
      "Ġ/": 590,
      "Ġ&": 223,
      "ach": 1343,
      "div": 3979,
      "ystem": 7666,
      "ell": 2119,
      "Ġhave": 63,
      "err": 4479,
      "ull": 8359,
      "pon": 6996,
      "ĠJ": 1737,
      "_p": 12190,
      "Ġ==": 3382,
      "ign": 3477,
      "St": 2487,
      ".Ċ": 28,
      "Ġpl": 6993,
      ");ĊĊ": 6250,
      "form": 4101,
      "put": 11049,
      "}ĊĊ": 465,
      "dd": 13908,
      "ite": 1759,
      "Ġget": 812,
      "rr": 10641,
      "ome": 4172,
      "aram": 19218,
      "cc": 6312,
      "ER": 2854,
      "In": 929,
      "les": 1952,
      "_s": 13612,
      "ong": 6876,
      "ie": 712,
      "Ġcan": 99,
      "ĠV": 853,
      "erv": 2306,
      "pr": 2052,
      "Ġun": 200,
      "row": 12167,
      "ber": 2355,
      "Ġdo": 112,
      "ll": 4167,
      "Ġel": 2005,
      "Ġself": 1082,
      "ated": 1318,
      "ary": 2505,
      "Ġ.": 1565,
      "']": 7545,
      "ud": 3704,
      "Ġen": 98,
      "ĠTh": 5514,
      "ĠĠĠĠĠĠĠĠĠĠĠĠĠĠĠĠĠĠĠĠĠĠĠ": 24383,
      "te": 1731,
      "_c": 11860,
      "uct": 338,
      "Ġab": 1728,
      "ork": 7883,
      ".get": 6639,
      "Ġ#": 561,
      "aw": 6437,
      "ress": 7975,
      "ob": 3414,
      "Name": 7797,
      "201": 1264,
      "app": 4664,
      "['": 3638,
      "Ġall": 74,
      "ory": 8702,
      "ition": 3481,
      "ance": 1834,
      "ear": 8582,
      "Ġcont": 7162,
      "vent": 5772,
      "ia": 1486,
      "Ġwill": 89,
      "IN": 5449,
      "ĠĠĠĠĠĠĠĠĠ": 8023,
      "return": 22280,
      "Ġ</": 36,
      "data": 7179,
      ")ĊĊ": 1949,
      "Re": 434,
      "ple": 6971,
      "ild": 4104,
      "ther": 11789,
      "Ġyour": 70,
      "\"Ċ": 2492,
      "($": 7603,
      "Ġout": 671,
      "),": 560,
      "Ġhas": 242,
      "String": 9144,
      "so": 3797,
      "Ġup": 447,
      "ax": 3759,
      "Ġdef": 2714,
      "Ġbo": 6315,
      "ge": 1485,
      "ON": 4663,
      "per": 280,
      "12": 268,
      "ich": 2102,
      "Ġbut": 417,
      "ĠĊ": 18,
      "Ġ_": 6587,
      "_m": 20105,
      "add": 12286,
      "quest": 18048,
      "self": 6847,
      "ery": 3991,
      "ft": 4149,
      "ens": 373,
      "ake": 5957,
      ".C": 5081,
      "Ġgo": 1983,
      "Ġfunction": 955,
      "ĠK": 766,
      "ivate": 9539,
      "Ġim": 914,
      "Ġconst": 3659,
      ".t": 10896,
      "Ġ*/Ċ": 13267,
      "Ġvoid": 5268,
      "Ġset": 1034,
      "ĠSystem": 1300,
      "cri": 23167,
      "()Ċ": 2599,
      "li": 3,
      ".m": 4699,
      "ally": 2721,
      "set": 2342,
      "ep": 6154,
      "âĢĻs": 6025,
      "bo": 9091,
      "def": 3411,
      "',Ċ": 4848,
      "Ġme": 743,
      "Ġ!": 29666,
      "atch": 11970,
      "\">": 507,
      "\",Ċ": 3212,
      "ec": 4747,
      "ĠIn": 552,
      "ph": 4370,
      "Ġ|": 844,
      "_f": 18356,
      "Ġvar": 4985,
      "ence": 2570,
      "Id": 6268,
      "ree": 16270,
      "ink": 3671,
      "lect": 11408,
      "ug": 4225,
      "eth": 10745,
      "Ġelse": 1839,
      "----------------": 11363,
      "19": 1504,
      "cont": 12879,
      "Ġso": 750,
      "atic": 11556,
      "Ġlo": 4814,
      "pro": 3895,
      "ton": 4009,
      "ss": 1870,
      "own": 7236,
      "abel": 18649,
      "oint": 12232,
      "ous": 1550,
      "eld": 3607,
      "ST": 5751,
      "The": 110,
      "RE": 3305,
      "\":": 54,
      "olor": 29091,
      "tp": 17201,
      "eg": 4292,
      "key": 7638,
      "ude": 4651,
      "ĠSt": 1229,
      "ound": 12564,
      "Ġar": 2081,
      "\");Ċ": 7803,
      "ener": 4729,
      "ser": 1739,
      "11": 822,
      "fer": 2821,
      "Ġmore": 179,
      "ations": 379,
      "ents": 3748,
      "Ġhis": 1441,
      "Ġthey": 454,
      ".S": 1302,
      "ĠY": 3443,
      "use": 4483,
      "ne": 1563,
      "ish": 4710,
      "old": 7734,
      "_d": 17026,
      "io": 2133,
      "Ġper": 177,
      "Cont": 18541,
      "ings": 1443,
      "Ġdata": 118,
      "Ġsa": 5265,
      "ef": 3390,
      "fo": 18338,
      "Ġone": 374,
      "eng": 3870,
      "Ġdis": 3990,
      "AT": 5139,
      "Ġname": 1612,
      "Ġtrue": 2103,
      "val": 5562,
      "led": 4416,
      ".f": 13255,
      "Ġne": 3936,
      "Ġend": 1455,
      "32": 2621,
      ".T": 9572,
      "16": 1798,
      "cre": 17929,
      "ark": 4229,
      "log": 3953,
      "Ex": 281,
      "error": 11898,
      "_id": 5207,
      "ange": 4233,
      "Ġnull": 6559,
      "Ġmy": 928,
      "pan": 6084,
      "ict": 27245,
      "ator": 3235,
      "View": 7731,
      "List": 12284,
      "âĢĿ": 12279,
      "Ġpre": 1415,
      "Ġx": 2394,
      "clude": 27288,
      "arg": 10317,
      "15": 1237,
      "ov": 4272,
      ".h": 5678,
      "Ġ>": 5710,
      "Ġtheir": 82,
      "')": 7424,
      "irst": 12880,
      "ick": 2743,
      "gh": 12123,
      "LE": 5942,
      "OR": 2439,
      "Ġprivate": 1490,
      "tem": 14089,
      "user": 4415,
      "Ġ)": 12702,
      "com": 7979,
      ".A": 5872,
      "\";Ċ": 9497,
      "Ġid": 3425,
      "read": 10394,
      "Ġwho": 386,
      "_b": 12022,
      "\">Ċ": 7444,
      "Ġtime": 166,
      "Ġman": 3911,
      "ry": 2746,
      "roup": 30040,
      "rop": 12554,
      "public": 7137,
      "vel": 9114,
      "umber": 11401,
      "ble": 2867,
      "Ġwhich": 359,
      "Ġany": 47,
      "Ġfalse": 1922,
      "we": 2595,
      "Ġvalue": 148,
      "Ġli": 7489,
      "\")": 6927,
      "nder": 12701,
      "gr": 2923,
      "Ġno": 53,
      "param": 12792,
      "25": 1013,
      "fig": 16578,
      ".com": 618,
      "Ġapp": 1938,
      "_l": 29952,
      "ions": 3394,
      ".D": 4660,
      "ĠCh": 2962,
      "Ġabout": 239,
      "Ġadd": 422,
      "Ġsu": 2879,
      "Ġstring": 274,
      "ID": 3618,
      "Ġover": 593,
      "string": 8038,
      ".l": 9583,
      "000": 255,
      "_C": 11743,
      "]Ċ": 5026,
      "Ġqu": 4400,
      "ĠString": 5858,
      "ca": 3317,
      "SE": 2797,
      "Ġro": 7484,
      "sh": 5608,
      "ual": 3488,
      "Type": 8485,
      "son": 3110,
      "new": 8268,
      "ern": 1416,
      "Ġag": 3736,
      "AR": 5359,
      "];Ċ": 10816,
      "].": 8212,
      "Ġ?": 2826,
      "ical": 418,
      "Ġdes": 445,
      "uth": 13258,
      "ix": 4201,
      "ays": 7461,
      "Ġtype": 1469,
      "'t": 640,
      "ault": 27170,
      "Ġinter": 2162,
      "var": 4470,
      ".b": 7087,
      "Ġpart": 581,
      ".d": 6832,
      "IT": 146,
      "EN": 3231,
      "30": 203,
      "enc": 6319,
      "(f": 5776,
      "ra": 1668,
      "value": 10987,
      "cho": 11784,
      "18": 1184,
      "ose": 7150,
      "14": 1762,
      "ater": 4672,
      "Ã©": 682,
      "oll": 5490,
      "pos": 13368,
      "yle": 30260,
      "ng": 6799,
      "AL": 2964,
      "using": 9170,
      "ames": 30198,
      "ates": 903,
      "ely": 6488,
      "Ġwork": 101,
      "Ġem": 2154,
      "inal": 12672,
      "Ġsp": 6530,
      "Ġwhen": 705,
      ".set": 7670,
      "ĠĠĠĠĠĠ": 6565,
      "):Ċ": 2388,
      "to": 2419,
      "quire": 8736,
      "lement": 6282,
      "pect": 7080,
      "ash": 7154,
      "[i": 9006,
      "Ġuse": 81,
      ".F": 9697,
      "Ġad": 4077,
      "ove": 20620,
      "ception": 15752,
      "ader": 8486,
      "atus": 27916,
      "Th": 3647,
      "rit": 8366,
      "void": 8704,
      "().": 7246,
      "(Ċ": 9557,
      "Ġoff": 759,
      "Ġother": 92,
      "Ġ&&": 13352,
      "';Ċ": 5572,
      "ms": 5820,
      "Ġbeen": 612,
      "Ġte": 1785,
      "ml": 11210,
      "co": 2426,
      "nc": 8251,
      "13": 460,
      "ervice": 12438,
      "Ġ%": 5244,
      "**Ċ": 1752,
      "ann": 5263,
      "ade": 5028,
      "lock": 17611,
      "const": 3616,
      "100": 793,
      "Ġsup": 13525,
      "++": 4922,
      "date": 11440,
      "Ġacc": 7396,
      "Ġhad": 1373,
      "Ġbu": 19344,
      "200": 1051,
      "ĠRe": 1174,
      "Ġwere": 1110,
      "Ġfile": 1101,
      "Ġwould": 826,
      "ĠâĢľ": 9764,
      "ven": 1965,
      "iss": 3476,
      "Ġour": 60,
      "class": 5315,
      "raw": 25540,
      "Ġyear": 425,
      "Data": 4309,
      "Ġval": 5901,
      "Ġsome": 564,
      "fter": 17597,
      "ys": 3027,
      "round": 13947,
      "view": 10062,
      "Ġpe": 5541,
      "Ġthere": 676,
      "Ġsaid": 3378,
      "du": 6254,
      "of": 6142,
      "line": 3661,
      "duct": 1519,
      "Ġher": 1153,
      "ĠĠĠĠĠĠĠĠĠĠĠĠĠ": 23979,
      "Res": 2072,
      "Ġco": 2373,
      "Ġcomm": 3181,
      "ise": 1252,
      "min": 6513,
      "ĠĠĠĠĊ": 6867,
      "#include": 7916,
      ".P": 10203,
      "ute": 1886,
      "Ġass": 5934,
      "Int": 3944,
      "ask": 5875,
      "loc": 13742,
      "Ġlike": 132,
      "ody": 15434,
      "Ġlet": 1818,
      "load": 20045,
      "Ġam": 1678,
      "rol": 6221,
      "Ġgr": 5239,
      "yp": 13013,
      "Ġalso": 397,
      "ĠIt": 650,
      "url": 7341,
      "ific": 8252,
      "ors": 1632,
      "_n": 26996,
      "igh": 6650,
      "Ġthan": 631,
      "Com": 1578,
      "AN": 4817,
      "UL": 18244,
      "ating": 1299,
      "17": 2045,
      "ĠThis": 211,
      "ref": 15701,
      "_S": 30394,
      "Ġstatic": 8031,
      "roll": 5929,
      "Ġjust": 775,
      "Ġresult": 2059,
      "ian": 2248,
      "Ġthem": 577,
      "));Ċ": 11264,
      "der": 2949,
      "reak": 25528,
      "Con": 1150,
      "://": 968,
      "ule": 3762,
      "...": 1913,
      "arch": 4781,
      "ement": 1884,
      "Ġ<<": 12023,
      "50": 764,
      "ush": 12171,
      "ense": 6205,
      "arr": 7359,
      "Ġinto": 244,
      "cess": 21968,
      "amp": 6325,
      "ied": 2441,
      "ument": 6193,
      "Ġ\\": 214,
      "],": 5639,
      "wo": 12170,
      "als": 2058,
      "Ġwhat": 672,
      "anc": 5600,
      "Value": 9482,
      "='": 2513,
      "olum": 16313,
      "Ġpos": 7217,
      "ages": 1966,
      "ayer": 11173,
      "Ġsc": 5415,
      "ues": 5586,
      "\")Ċ": 6031,
      "Ġlist": 1405,
      "(s": 2321,
      "Ġcase": 1643,
      "Ch": 4209,
      "ponent": 16147,
      "Ġz": 1434,
      "Ġkn": 15843,
      "let": 4086,
      "DE": 4586,
      "red": 5848,
      "Ġfe": 8919,
      "Ġ},Ċ": 5630,
      "Ġ,": 2788,
      "(t": 25887,
      "Ġfirst": 918,
      "');Ċ": 6197,
      "word": 26393,
      "Ġimport": 3332,
      "Ġact": 2702,
      "Ġchar": 11214,
      "CT": 4462,
      "ĠTr": 4275,
      "ople": 29209,
      "={": 14975,
      "24": 865,
      "ient": 3139,
      "cent": 3580,
      ".j": 20579,
      "lection": 19455,
      "))Ċ": 7118,
      "Ġonly": 94,
      "Ġprint": 2297,
      "mer": 3871,
      ".W": 10260,
      "ock": 8118,
      "Ġ--": 3155,
      "Text": 6444,
      "Ġop": 1724,
      "ank": 5426,
      "Ġits": 462,
      "Ġback": 1456,
      "[\"": 14793,
      "Ġneed": 553,
      "Ġcl": 5981,
      "Ġsub": 3133,
      "Ġla": 430,
      "((": 7535,
      ".\"": 2139,
      "Object": 9805,
      "Ġstart": 952,
      "file": 5902,
      "(self": 5827,
      "ner": 2592,
      "ey": 5709,
      "Ġuser": 649,
      "Ġent": 4035,
      "ĠCom": 3695,
      "its": 1764,
      "ĠCon": 2836,
      "ower": 10147,
      "item": 14657,
      "very": 31666,
      "ĠWe": 154,
      "64": 4456,
      "lick": 27740,
      "ĠQ": 4912,
      "php": 10143,
      "':": 2525,
      "ics": 2299,
      "Ġunder": 1037,
      "Ġ*Ċ": 17012,
      ".L": 8536,
      ");": 2903,
      "ices": 8988,
      "Ġreg": 3877,
      "SS": 3011,
      "Ġthen": 1604,
      "reat": 8174,
      "ious": 6688,
      ".G": 11020,
      "ek": 3590,
      "irect": 9739,
      "heck": 21927,
      "cript": 10826,
      "ning": 3564,
      "ĠUn": 2526,
      "Ġmay": 147,
      "ĠWh": 8069,
      "Bo": 21767,
      "Item": 16588,
      "struct": 7683,
      "ible": 1816,
      "Ġorg": 9970,
      "und": 2006,
      "sum": 8662,
      "_in": 25653,
      "Ġhow": 658,
      "rite": 525,
      "'Ċ": 5197,
      "To": 2035,
      "40": 838,
      "Ġpeople": 559,
      "index": 8537,
      ".n": 10589,
      "http": 6564,
      "(m": 22807,
      "Ġind": 8777,
      "],Ċ": 23376,
      "ĠHe": 2118,
      "ful": 3859,
      "ole": 6588,
      "){Ċ": 19749,
      "Ġshould": 836,
      "opy": 15810,
      "elp": 9708,
      "ier": 1178,
      "_name": 6986,
      "erson": 10132,
      "ION": 15707,
      "ote": 3836,
      "Ġtest": 1280,
      "Ġbet": 2827,
      "ular": 6442,
      "bs": 3049,
      "ting": 3854,
      "Ġmake": 205,
      "Tr": 7273,
      "Ġafter": 1239,
      "RO": 8743,
      "rc": 24366,
      "22": 2418,
      "Ġright": 869,
      "right": 13407,
      "day": 6825,
      "Ġlong": 895,
      "[]": 8781,
      "(p": 21874,
      "td": 8656,
      "cond": 30541,
      "ĠPro": 2199,
      "Ġrem": 7172,
      "ptions": 13750,
      "vid": 12695,
      ".g": 1257,
      "Ġext": 12203,
      "Ġ__": 8261,
      "')Ċ": 4263,
      "pace": 16388,
      "mp": 7263,
      "Ġmin": 57,
      "air": 9769,
      "action": 7872,
      "wh": 19393,
      "type": 5323,
      "util": 24226,
      "ait": 175,
      "IC": 1548,
      "text": 4855,
      "Ġph": 497,
      "Ġfl": 7371,
      ".M": 7578,
      "br": 27,
      "fore": 7268,
      "),Ċ": 12976,
      ".re": 29958,
      "ateg": 12969,
      "Ġloc": 3896,
      "ins": 2369,
      "-s": 2859,
      "ĠInt": 1362,
      "Ġarray": 107,
      ",\"": 2638,
      "Pro": 248,
      "(c": 10505,
      "ession": 9741,
      ">ĊĊ": 2184,
      "Ġshe": 2285,
      "\"]": 6540,
      "aph": 23101,
      "Ġexp": 7272,
      "erty": 19111,
      "ĠSe": 4296,
      "Ġpar": 1852,
      "unc": 18635,
      "ET": 5281,
      "Ġread": 1972,
      "print": 4254,
      "Ġrel": 5186,
      "Ġform": 1878,
      "Ġdr": 15985,
      "Exception": 6965,
      "input": 8119,
      "Ġtrans": 6249,
      "order": 7499,
      "By": 4110,
      "ities": 3389,
      "uff": 6770,
      "play": 12581,
      ".add": 7965,
      "ĠâĢĵ": 706,
      "Ġwant": 922,
      "Ġcomp": 7018,
      "ments": 1619,
      "Ġ||": 17801,
      "az": 6248,
      "be": 3066,
      "Ġnumber": 1049,
      "Ġrequire": 1364,
      "ĠEx": 2527,
      "60": 1601,
      "Ġcol": 14201,
      "Ġkey": 857,
      "ember": 22032,
      "Ġtwo": 1064,
      "Ġsize": 433,
      "Ġwhere": 585,
      "UT": 4726,
      "result": 12266,
      "ough": 23877,
      "ood": 11572,
      "uch": 4739,
      "ative": 1279,
      "ger": 3116,
      "Ġarg": 31232,
      "Ġwhile": 247,
      "23": 2501,
      "(this": 24914,
      "Ġrec": 3529,
      "Ġdif": 24970,
      "State": 3247,
      "Ġspec": 18478,
      "ride": 14225,
      "Ġlook": 428,
      "AM": 3444,
      "ility": 3473,
      "eter": 2934,
      "âĢĻt": 13821,
      "--------------------------------": 20095,
      "ager": 6039,
      "Ġcould": 1102,
      "Ġbr": 7244,
      "ends": 2021,
      "ures": 272,
      "Ġknow": 999,
      "ets": 1788,
      "ĠIf": 557,
      "ĠSh": 4683,
      ".w": 6327,
      "back": 10032,
      "Ġser": 4528,
      "Ġ+=": 7034,
      "Ġfr": 7566,
      "());Ċ": 13453,
      "Ġhand": 2158,
      "Ind": 8284,
      "Im": 6446,
      "();ĊĊ": 13305,
      "Ġmost": 681,
      "Ġtry": 1808,
      "Ġnow": 259,
      "Ġhim": 5424,
      "._": 20918,
      "ify": 3191,
      "Ġbreak": 3802,
      "Ġ);Ċ": 20066,
      "ren": 3408,
      "itt": 3192,
      "Ġap": 6102,
      "(n": 8365,
      "ĠYou": 195,
      ":ĊĊ": 123,
      "-m": 2786,
      "Ġevery": 758,
      "lient": 24288,
      "cription": 21079,
      "Error": 5167,
      "-b": 4961,
      "Ð¾": 5899,
      "][": 24197,
      "99": 8701,
      "trans": 19625,
      "Ġpoint": 1977,
      "Ġstd": 7329,
      "Ġfil": 10534,
      "Time": 7107,
      "80": 1727,
      "Ġmod": 9920,
      "Ġ->": 8913,
      "Ġerror": 2645,
      "ah": 2893,
      "Ġtext": 26,
      "lose": 19639,
      "ql": 27584,
      "Ġpol": 12943,
      "></": 33,
      "Ġshow": 3789,
      "User": 7097,
      "ased": 13776,
      "Ġ{ĊĊ": 20040,
      "Ġfind": 782,
      "Ð°": 3492,
      "ED": 1573,
      "span": 7073,
      "enu": 25221,
      "Ġcurrent": 714,
      "Ġused": 204,
      "cept": 14127,
      "Ġplay": 1459,
      "Ġlog": 2749,
      "ution": 11951,
      "fl": 5168,
      "Ġsee": 1054,
      "Ġhelp": 335,
      "Ġthese": 661,
      "Ġpass": 2405,
      "Ġdown": 2303,
      "Ġeven": 1369,
      "ason": 17696,
      "uild": 31485,
      "from": 4024,
      "(d": 18946,
      "Ġbl": 13480,
      "label": 12365,
      "else": 7575,
      "Ðµ": 3052,
      "Ġ(!": 18268,
      "ized": 843,
      "(),": 12868,
      "Ġob": 7908,
      "Ġitem": 5305,
      "ump": 13062,
      "UR": 3946,
      "orn": 6989,
      "Ġdon": 1182,
      "Se": 4546,
      "man": 2263,
      "27": 4706,
      "tn": 10220,
      "================": 29231,
      "He": 8985,
      "gram": 25290,
      "Ġdid": 4237,
      "iver": 3162,
      "Ġsm": 18875,
      "Ġthrough": 405,
      "ĠAn": 197,
      "che": 3724,
      "Ġinv": 17498,
      "ouse": 12261,
      "Ġes": 2075,
      "ĠNew": 806,
      "export": 11412,
      "uto": 10266,
      "ler": 3285,
      "Ġlast": 2258,
      "Ġevent": 2114,
      "try": 11090,
      "ily": 7135,
      "igned": 18628,
      "ines": 4599,
      "ollow": 29477,
      "lear": 31495,
      "(int": 10652,
      "Ġagain": 5181,
      "Ġhigh": 364,
      "html": 182,
      "Index": 16424,
      "Ġ/**Ċ": 17534,
      "Ġline": 87,
      "Event": 8275,
      "Ġdoes": 198,
      "Ġcr": 7526,
      "ars": 4317,
      "28": 3814,
      "Ġtem": 18922,
      "face": 24744,
      "Ġ`": 357,
      "_A": 29887,
      "Button": 9791,
      "ature": 5523,
      "ES": 3006,
      "ister": 2572,
      "Ġbefore": 1331,
      "ale": 1849,
      "other": 13761,
      "Ġbecause": 1718,
      "roid": 23067,
      "Ġed": 10228,
      "ik": 1380,
      "reg": 7809,
      "ĠDe": 1499,
      "Ġdist": 14083,
      "},Ċ": 31421,
      "Ġstate": 532,
      "Ġcons": 7195,
      "att": 3313,
      "Ġhere": 1019,
      "ined": 11708,
      "Ġfinal": 476,
      "Ġ\"\"": 18605,
      "Key": 911,
      "LO": 4242,
      "Ġdel": 2055,
      "pty": 24190,
      "thing": 21227,
      "26": 2616,
      "ĠAnd": 2079,
      "Ġrun": 2236,
      "ĠX": 2489,
      "ym": 7641,
      ".app": 31460,
      "Ġvery": 1984,
      "ces": 7442,
      "ared": 22323,
      "ward": 11184,
      "list": 4796,
      "ited": 4756,
      "olog": 4523,
      "itch": 12351,
      "Box": 17967,
      "ife": 5637,
      "33": 6482,
      "Ġac": 4146,
      "Ġmodel": 1040,
      "Ġmon": 5208,
      "Ġway": 721,
      "Ġcall": 1303,
      "Ġatt": 2169,
      "Ġcal": 9919,
      "vert": 6527,
      "Ġdec": 14174,
      "oun": 27285,
      "Ġ});Ċ": 7813,
      "fr": 2142,
      "formation": 24024,
      "etail": 22811,
      "Ġnum": 4283,
      "aj": 6132,
      "query": 15806,
      "Ġwell": 411,
      "Ġobject": 45,
      "ĠAs": 551,
      "Ġyears": 202,
      "Color": 10475,
      "IS": 2010,
      "Ġdefault": 7040,
      "Wh": 15153,
      "Ġins": 4285,
      "aint": 906,
      "Ġjava": 10965,
      "Ġsim": 9374,
      "ĠAr": 3579,
      "mon": 8923,
      "til": 25279,
      "):": 1293,
      "Set": 5714,
      "29": 4669,
      "atter": 21868,
      "Ġview": 3819,
      "Ġpres": 8089,
      "array": 21853,
      "We": 3324,
      "At": 799,
      "Ġbel": 13249,
      "Ġmany": 803,
      "21": 2295,
      "Man": 7571,
      "ender": 4001,
      "Ġbeing": 796,
      "Ġgood": 385,
      "ational": 1804,
      "ware": 6810,
      ".log": 4577,
      "Ġusing": 73,
      "_B": 10462,
      "Ġ:=": 11776,
      "_w": 27494,
      "ists": 1542,
      "Ġstud": 25786,
      "ĠAl": 1928,
      "Ġgu": 16400,
      "config": 13366,
      "uring": 3887,
      "time": 6105,
      "oken": 25791,
      "Ġrequest": 1655,
      "Ġchild": 3818,
      "ĠÃ": 13427,
      "lob": 17353,
      "Ġparam": 17525,
      "01": 2483,
      "Ġecho": 9608,
      "function": 8317,
      "ps": 3940,
      "Element": 8062,
      "alk": 8176,
      "lication": 26700,
      "by": 4127,
      "Size": 13780,
      "Ġperson": 1382,
      "ĠĠĠĠĠĠĠĠĠĠĠĠĠĠĠĠĠ": 20566,
      "\\n": 3881,
      "object": 13615,
      "En": 4231,
      "File": 6836,
      "uf": 1127,
      "AC": 1942,
      "Ġstyle": 1700,
      "Ġque": 961,
      "_r": 24976,
      "Ġ($": 4474,
      "Model": 7856,
      "ident": 5414,
      "Ġmethod": 1976,
      "IL": 5828,
      "ott": 8769,
      "less": 4139,
      "ING": 3530,
      "Ġ()": 15352,
      "Ġexpect": 2457,
      "package": 19241,
      "35": 2625,
      "urs": 2095,
      "Ġprot": 11677,
      "./": 13263,
      "pre": 4779,
      "Ġ)Ċ": 20659,
      "ma": 4224,
      "Ġsur": 1551,
      "Ġfound": 1806,
      "Info": 22768,
      "par": 7219,
      "imes": 13488,
      ".e": 3442,
      "ains": 2318,
      "Ġpost": 426,
      "-d": 3374,
      "45": 2442,
      "Ġsl": 13238,
      "PE": 5325,
      "Ġsuch": 167,
      "select": 18646,
      "Ġthink": 1607,
      "Ġdiffer": 12535,
      ".r": 16756,
      "/**Ċ": 29185,
      "FF": 16755,
      "ool": 25842,
      "qual": 6979,
      "ĠFor": 1005,
      "Ġmuch": 2030,
      "uc": 6980,
      "(new": 17053,
      "Ġsom": 3213,
      "Ġhttp": 7411,
      "ĠList": 6641,
      "Ġcount": 5507,
      "Ġinst": 15654,
      "char": 15728,
      "mit": 4181,
      ".id": 10118,
      "aking": 7861,
      "Ġgener": 9746,
      "px": 3038,
      "37": 4273,
      "_data": 6425,
      "ĠNULL": 6689,
      "idd": 16742,
      "ãĢĤ": 1561,
      "Ġmed": 2040,
      "org": 2141,
      "ider": 8664,
      "ache": 6167,
      "work": 4344,
      "Ġcheck": 1363,
      "Ġ((": 27130,
      "the": 4793,
      "ants": 2376,
      "><": 5,
      ".B": 3677,
      "-c": 4208,
      "Ġopen": 1208,
      "Ġest": 1623,
      "ĠĠĠĠĠĠĠĠĊ": 23440,
      "Ġnext": 1223,
      "IM": 6484,
      "ÑĤ": 13107,
      "OT": 1931,
      "Ã³": 6286,
      "Ġfollow": 1541,
      "content": 9658,
      "HE": 6963,
      "ĠRes": 3658,
      "Ġhref": 8626,
      "Ð¸": 3726,
      "Ġcar": 2223,
      "image": 9655,
      "Un": 2266,
      "Ġbool": 30857,
      "AD": 3337,
      "Ġgame": 2087,
      "rows": 10653,
      "velop": 11980,
      "Ġpath": 2631,
      "ision": 1028,
      "Ġeach": 258,
      "ĠPl": 5349,
      "_type": 15573,
      "Path": 10583,
      "Ġav": 3047,
      "').": 11333,
      "Ġsupport": 196,
      "ENT": 8050,
      "rem": 7452,
      "\").": 13010,
      "Ġown": 985,
      "Ġcor": 9521,
      "count": 19052,
      "miss": 26331,
      "ually": 3853,
      "Ġmem": 15951,
      "std": 24446,
      "ience": 7598,
      "search": 8574,
      "\"ĊĊ": 5783,
      "Form": 8826,
      "Ġsex": 1270,
      "Ġsign": 2988,
      "Ġet": 333,
      "ĠĠĠĠĠĠĠĠĠĠ": 16893,
      "','": 27532,
      "ĠApp": 5120,
      "Ġthose": 983,
      "off": 5450,
      "Ġerr": 22058,
      "Ġsystem": 226,
      "Ġbest": 432,
      "code": 20906,
      "Ġsame": 424,
      "Ġdi": 1244,
      "uss": 3840,
      "Ġcreate": 555,
      "ather": 15750,
      "Array": 16860,
      ".in": 15052,
      "fe": 4056,
      "Service": 5767,
      "UN": 8594,
      "ats": 3449,
      "ĠZ": 1829,
      "alth": 24075,
      "Ġmade": 1020,
      "true": 14465,
      "AB": 4526,
      "Ġmark": 9685,
      "rid": 15908,
      "ified": 56,
      "yn": 5340,
      "press": 20496,
      "Ġgroup": 1158,
      "Ġfin": 6762,
      "ĠLicense": 1157,
      "Field": 13100,
      "Ġworld": 606,
      "iness": 8124,
      "ty": 691,
      "Ġprocess": 573,
      "(b": 7724,
      "Ġcre": 8468,
      "arn": 5288,
      "ives": 2282,
      "Ġmain": 1545,
      "36": 598,
      "AG": 6696,
      "img": 24384,
      "PI": 4098,
      "Ġcolor": 871,
      "Ġreport": 1871,
      "Ġtake": 656,
      "rib": 28016,
      "OM": 5597,
      "Ġday": 651,
      "Request": 13409,
      "Ġsk": 5581,
      "bers": 10546,
      ".Add": 28907,
      "oot": 19288,
      "Image": 12118,
      "Ġcomple": 16946,
      "Ġtop": 683,
      "Ġfree": 837,
      "AS": 1970,
      "De": 2726,
      "ĠOn": 1999,
      "IG": 8335,
      "90": 2182,
      "eta": 11671,
      "Date": 10031,
      "Ġaction": 1491,
      "34": 5243,
      "Over": 2735,
      "itor": 13147,
      "not": 9451,
      "Ġindex": 4899,
      "her": 4063,
      "icon": 13843,
      "On": 2905,
      "ivity": 2168,
      "mand": 15143,
      "OL": 7749,
      "Ġreal": 1388,
      "Ġmax": 5931,
      "land": 2870,
      "....": 20328,
      "raph": 26209,
      "Ġbuild": 1156,
      "leg": 2782,
      "?ĊĊ": 4277,
      "ook": 11775,
      "uck": 8872,
      "Ġmessage": 2402,
      "test": 5533,
      "ivers": 4539,
      "38": 5814,
      "Ġinput": 1220,
      "Ġart": 2032,
      "Ġbetween": 728,
      "Get": 4168,
      "enter": 6126,
      "ground": 27799,
      "ene": 2161,
      "Ã¡": 5022,
      ".length": 16474,
      "Node": 8184,
      "(i": 22806,
      "Class": 9455,
      "for": 3203,
      "ĠâĢĶ": 2581,
      "ten": 1474,
      "oin": 19248,
      "Ġke": 7475,
      "ui": 5779,
      "ĠIN": 3375,
      "Ġtable": 3498,
      "sub": 31952,
      "ĠLe": 1695,
      "Ġhead": 5182,
      "Ġmust": 128,
      ".util": 18548,
      "Context": 10901,
      "Ġorder": 1508,
      "Ġmov": 29381,
      "over": 5353,
      "Ġcontin": 21441,
      "Ġsay": 2315,
      "static": 30271,
      "pany": 27877,
      "Ġter": 10311,
      "head": 181,
      "rg": 14380,
      "Ġproduct": 909,
      "This": 1653,
      "ĠBut": 2920,
      "70": 3033,
      "Ġdouble": 7093,
      "sg": 2952,
      "Ġplace": 388,
      ".x": 10672,
      "message": 13184,
      "Ġinformation": 77,
      "private": 25801,
      "Ġoper": 7793,
      "ced": 18561,
      "db": 15461,
      "\"></": 11136,
      "Param": 18375,
      "Ġweek": 361,
      "Ġprop": 11595,
      "table": 8902,
      "place": 9138,
      "Prop": 17816,
      "ĠAll": 1359,
      "els": 2289,
      "box": 18167,
      ".R": 12311,
      "ĠTo": 1389,
      "iter": 1887,
      "Sh": 10157,
      "uration": 10974,
      "_list": 11849,
      "Ġsw": 13290,
      "ization": 1432,
      "bl": 6841,
      "Ġprogram": 398,
      "(e": 2958,
      "ape": 11118,
      "check": 22624,
      "Ġund": 161,
      "75": 3180,
      "ags": 5903,
      "Ġresponse": 251,
      "US": 2613,
      "request": 20004,
      "Ġstruct": 7181,
      "Ġcode": 366,
      "_H": 23756,
      "Ġwithout": 95,
      "Manager": 11052,
      "PO": 6365,
      "option": 14579,
      "Ġsol": 4050,
      "Ġ===": 15252,
      "akes": 7699,
      "Controller": 14852,
      "44": 7701,
      "Message": 12444,
      "Ġref": 8042,
      "ever": 10079,
      "ĠSo": 2901,
      "aining": 3731,
      ".append": 10012,
      "Ġstill": 1683,
      "Ġprovid": 29343,
      "Ġassert": 18809,
      "med": 5876,
      "Ġcap": 9975,
      "usiness": 26912,
      "Ġrep": 6866,
      "ved": 13246,
      ".N": 13627,
      "api": 8811,
      "OD": 7512,
      "Ġfield": 667,
      "iven": 3401,
      "oto": 20574,
      "âĢľ": 21310,
      "col": 9862,
      "(x": 8841,
      "Result": 18324,
      "Code": 8876,
      ".is": 14116,
      "link": 12680,
      "Ġcour": 12777,
      "An": 7775,
      "Ġteam": 90,
      "ift": 7065,
      "55": 3504,
      "Ġsecond": 3099,
      "Ġgoing": 3801,
      "Ġrange": 565,
      "_E": 25914,
      "ness": 1306,
      "39": 5864,
      "Ġfam": 8939,
      "Ġnil": 25001,
      "ĠCont": 12060,
      "utes": 8937,
      "atab": 8351,
      "Ġfact": 2430,
      "Ġvis": 7961,
      "(&": 17840,
      "ĠAN": 7046,
      "31": 4195,
      "Al": 5773,
      "title": 7193,
      "Ġandroid": 8773,
      "CE": 4164,
      "\\\"": 26887,
      "irt": 14844,
      "Ð½": 8510,
      "ond": 5280,
      "Ġret": 13130,
      "Ġhome": 866,
      "Ġleft": 4382,
      "args": 24017,
      "meric": 31656,
      "48": 2324,
      "Ġdirect": 849,
      "oci": 14390,
      "Pl": 8694,
      "As": 609,
      "ret": 3458,
      "ado": 3373,
      "Of": 11663,
      "chn": 2383,
      "ĠGet": 2539,
      "ee": 4612,
      "ross": 4034,
      "();": 22315,
      "____": 14253,
      "It": 2106,
      "oute": 10344,
      "Ġexper": 12729,
      "chool": 3633,
      "www": 1630,
      "},": 15998,
      "Ġallow": 2723,
      "())": 14506,
      "size": 13033,
      "ism": 1877,
      "ai": 4007,
      "tract": 17092,
      "ane": 7296,
      "...ĊĊ": 15194,
      "context": 31191,
      "Ġbeg": 8882,
      "CH": 4301,
      "Ġpage": 3070,
      "hip": 3984,
      "no": 138,
      "core": 18902,
      "sp": 4299,
      "Ġdifferent": 117,
      "iable": 5636,
      "ĠMe": 4904,
      "button": 9849,
      "ĠIs": 2424,
      "ervices": 24188,
      "Ġca": 6856,
      "Ġaround": 1056,
      "App": 2982,
      "ration": 10294,
      "Ġrece": 14077,
      "Ġreally": 2946,
      "Ġimage": 2209,
      "Ġtarget": 3754,
      "Ġdep": 18602,
      "tra": 4378,
      "ingle": 17941,
      "ital": 9766,
      "Layout": 18862,
      "Ġboth": 695,
      "Override": 25949,
      "arm": 7234,
      "aterial": 14617,
      "iled": 25068,
      "Ġput": 2970,
      "Qu": 12276,
      "ÑĢ": 6911,
      "ung": 391,
      "map": 9597,
      "Ġlevel": 852,
      "Component": 10409,
      "book": 15798,
      "Ġconfig": 12602,
      "Or": 7551,
      ".data": 15156,
      "Ġdocument": 1792,
      "\",\"": 11944,
      "tribute": 5559,
      "ux": 2619,
      "Log": 7811,
      "ference": 24745,
      "post": 8452,
      "Ġlocal": 613,
      "Val": 15881,
      "lected": 28554,
      "ina": 3698,
      "Add": 10242,
      "Ġcontent": 46,
      ".print": 25371,
      "ric": 6601,
      ".\"ĊĊ": 6071,
      "Ġfa": 13141,
      "!ĊĊ": 3494,
      "-f": 3575,
      "ived": 21539,
      "Ġquest": 9411,
      "Ġfloat": 6001,
      "Ġdevelop": 685,
      "Map": 13907,
      "ading": 12823,
      "Ġposs": 9240,
      "UE": 20263,
      "namespace": 30129,
      ".Get": 30166,
      ">(": 5969,
      "json": 3738,
      "66": 9159,
      "Ġtoo": 3193,
      "Ġextends": 9606,
      "ĠNone": 7511,
      "Ġfore": 17376,
      "(String": 11138,
      "format": 220,
      "Ġgreat": 810,
      "inter": 9035,
      "cale": 17371,
      "Ñģ": 7349,
      "ron": 5310,
      "iving": 5884,
      "Ent": 9636,
      "ency": 2969,
      "xt": 30366,
      "oy": 5374,
      "05": 4460,
      "Ġmonth": 2980,
      "Ġsuper": 5645,
      "bar": 3527,
      "default": 20845,
      "ords": 19007,
      "ln": 15698,
      "({Ċ": 12852,
      "ĠInd": 4604,
      "ases": 15308,
      "Ġtitle": 59,
      "Ġcontext": 441,
      "08": 3265,
      "oh": 3767,
      "-p": 3577,
      "Em": 8349,
      "Ġmet": 1564,
      "Test": 5921,
      "Ġlife": 562,
      "_v": 13674,
      "ĠUS": 1010,
      "UI": 9999,
      "ocation": 4406,
      "md": 18366,
      "Ġ[Ċ": 7938,
      "sw": 8147,
      "script": 7546,
      "ential": 2531,
      "ways": 10058,
      ".de": 7332,
      "Ġsrc": 7693,
      "Ġcatch": 5998,
      "ĠĠĠĠĠĠĠĠĠĠĠĠĠĠ": 20852,
      "Ġpay": 384,
      "âĢĶ": 3900,
      ".php": 9714,
      "Ġchange": 732,
      "'re": 378,
      "aster": 10799,
      "los": 9022,
      "lation": 29661,
      "ĠĠĊ": 22947,
      "Le": 4274,
      "Ã¤": 674,
      "({": 13272,
      "ĠNo": 136,
      "Ġposition": 208,
      "Ġold": 4308,
      "Ġbook": 4492,
      "202": 390,
      "Hand": 15484,
      "};ĊĊ": 15258,
      "aving": 13511,
      "04": 4509,
      "Ġversion": 286,
      "System": 5557,
      "response": 11712,
      "Style": 27324,
      "Up": 3858,
      "Ġthree": 1599,
      "init": 5448,
      "ero": 9200,
      "Ġlaw": 1283,
      "Ġbase": 68,
      "email": 12523,
      "Ġconf": 5380,
      "ATE": 10592,
      "Ġduring": 830,
      "tes": 2993,
      "Ġconsole": 4898,
      "ĠPr": 2365,
      "Ġspe": 9207,
      "ves": 5237,
      "65": 2812,
      "path": 7944,
      "_to": 8545,
      "ards": 7187,
      "Ġagainst": 2070,
      "ĠPh": 6020,
      "_L": 12977,
      "cur": 11359,
      "imit": 25900,
      "With": 3298,
      "Ġpower": 1160,
      "ium": 2561,
      "';ĊĊ": 9705,
      "left": 14005,
      "ources": 21650,
      "atri": 11739,
      "ĠIm": 10041,
      "ĠMan": 5078,
      "orth": 13823,
      "${": 20111,
      "88": 12387,
      "ese": 7816,
      "_size": 7096,
      "-g": 7651,
      "ique": 2034,
      "Ġwidth": 5212,
      "erg": 7740,
      ")(": 13854,
      "TR": 10654,
      "ĠThey": 957,
      "ences": 2730,
      "02": 2529,
      "rl": 18339,
      "ons": 1719,
      "Ġlabel": 5675,
      ".y": 15769,
      "-t": 2989,
      "update": 19368,
      "sc": 9435,
      ".to": 11564,
      "Ġproject": 744,
      "Ã¼": 2097,
      "Ġelement": 2948,
      "Ġsuccess": 724,
      "ĉĉĊ": 18721,
      ".sh": 16049,
      "ram": 14902,
      "ched": 22317,
      "())Ċ": 12464,
      "Ġ(Ċ": 11692,
      "Ġdate": 1571,
      "Ġtot": 8218,
      "All": 8671,
      "ification": 1646,
      "Ġtri": 7909,
      "chem": 13932,
      "my": 6073,
      "Ġbig": 3056,
      "ĠAd": 4704,
      "ĠAt": 1570,
      "ots": 10521,
      "num": 9018,
      "Act": 5218,
      "Ġmap": 6733,
      "era": 5465,
      "cope": 4790,
      ".$": 19109,
      ",âĢĿ": 25477,
      "Ġpop": 9723,
      "Ġfew": 1754,
      "Ġlen": 12902,
      "uid": 6953,
      "eters": 12344,
      "ules": 15592,
      "ÃŃ": 4615,
      "source": 21349,
      "https": 1951,
      "Ġdem": 2559,
      "Ġear": 13071,
      "Ġmatch": 1207,
      "ories": 13748,
      "49": 4906,
      "aces": 12157,
      "ĠCl": 6719,
      "Ġnode": 3860,
      "78": 10600,
      "irc": 26938,
      "local": 14484,
      "};Ċ": 11798,
      "Ġanother": 2764,
      "Ġsit": 5184,
      "ework": 22079,
      "TE": 3567,
      ".I": 23275,
      "NS": 7877,
      "ology": 820,
      ">>": 20771,
      "Ġcare": 125,
      "state": 7905,
      "Ġeffect": 4084,
      "++)": 9885,
      "_file": 7913,
      "ending": 7050,
      "Line": 8728,
      "For": 1703,
      "ior": 10758,
      "ĠSc": 6089,
      "Ġfun": 2656,
      "])": 14165,
      "start": 11023,
      "Ġ},": 14528,
      "ours": 7705,
      "Ġleg": 5634,
      "Ġservice": 413,
      "Ġsince": 2178,
      "iron": 29776,
      "Label": 20419,
      "Ġnon": 981,
      "Ġlos": 4120,
      "iction": 17132,
      "Ġfull": 627,
      "acter": 22350,
      "board": 9015,
      "gress": 18406,
      "Ġturn": 5085,
      "09": 3932,
      ".size": 15199,
      "Ġbody": 2322,
      "resh": 14495,
      "199": 3446,
      "pi": 11557,
      "Ġsomething": 1582,
      "Ġprodu": 12212,
      "Ġstand": 2367,
      "Ġproble": 26874,
      "Ġavailable": 655,
      "mt": 9197,
      "ĠBl": 9725,
      "Ġ...": 8571,
      "Ġblock": 7151,
      "Input": 10340,
      "Ġkeep": 2121,
      "Count": 13204,
      "open": 11039,
      "Ġ['": 12336,
      "Ġthrow": 15219,
      "Action": 11674,
      "Ġthings": 282,
      "True": 29706,
      "Ġurl": 16822,
      "ĠBo": 12652,
      "Ġred": 4193,
      "js": 7858,
      ".create": 19452,
      "ĠOr": 5011,
      "Status": 19460,
      "Ġcontrol": 238,
      "Ġcome": 1930,
      "Ġcustom": 2779,
      "location": 15610,
      "07": 2124,
      "model": 6412,
      "Ġsource": 2468,
      ".out": 9420,
      "]ĊĊ": 10384,
      "oney": 27493,
      "Ġawait": 10562,
      "Ġpartic": 13737,
      "AP": 1395,
      "odes": 13559,
      "ply": 11911,
      "Ġprov": 17846,
      "Ġmill": 12114,
      "HT": 8242,
      "])Ċ": 14849,
      "Ġchang": 18383,
      "Ġask": 2935,
      "Ġoutput": 61,
      "Ġemail": 1600,
      "68": 10364,
      ".push": 20086,
      "ination": 4170,
      "47": 7443,
      "atrix": 13487,
      "Table": 14104,
      "]);Ċ": 24877,
      "ĠĠĠĠĠĠĠĠĠĠĠĠĠĠĠĠĠĠĠĠĠĠĠĠĠĠĠĠĠĠĠĠĠĠĠĠĠĠĠ": 29739,
      "Ġdisc": 12577,
      "([": 11637,
      "Ġbusiness": 231,
      "height": 24771,
      ".html": 7644,
      "ta": 4197,
      "field": 4530,
      "Ġrequired": 212,
      "_R": 20378,
      "Ġgovern": 16294,
      "lex": 19471,
      "500": 395,
      ".,": 1089,
      "ĠSet": 4584,
      "urch": 7719,
      "///": 27247,
      "ts": 2317,
      "af": 4336,
      "Ġmight": 1454,
      "Str": 6202,
      "Ġnever": 3016,
      "Response": 13657,
      "arse": 24160,
      "ada": 2882,
      "ĠHow": 2725,
      "Ġ;": 3055,
      "Ġhard": 1823,
      "Ad": 2700,
      "Ġintern": 3886,
      "used": 24896,
      "(data": 8979,
      "mod": 6147,
      "annel": 26648,
      "Ġnp": 5963,
      "Ġ/>Ċ": 17913,
      "Ġcalled": 3163,
      "body": 184,
      "Ġcho": 13942,
      "(r": 17156,
      "ird": 21095,
      "Ġ>=": 15733,
      "Ġ};Ċ": 20047,
      "Ġoptions": 934,
      "ĠGener": 6097,
      "Ġheight": 4761,
      "Point": 10827,
      "You": 122,
      "ety": 18604,
      "Click": 10063,
      "Ġsmall": 1328,
      "Ġide": 13210,
      "Ġaccess": 617,
      "Ġprotected": 1093,
      "Ġjob": 29,
      "ĠThere": 2865,
      "Def": 16148,
      "Ġaddress": 1308,
      "Not": 5606,
      "oo": 14190,
      "aps": 13391,
      "ained": 10210,
      "atur": 11328,
      "Ġsum": 4352,
      "-w": 5842,
      "ĠDate": 690,
      "Ġlittle": 5442,
      "Ġport": 4318,
      "eh": 5017,
      "pring": 7307,
      "_path": 6050,
      "Ġstatus": 597,
      "06": 4046,
      "aim": 24147,
      "Ġos": 3384,
      ".name": 13894,
      "ension": 8885,
      "Ġupdate": 2968,
      "Config": 17041,
      "aff": 2611,
      "ERR": 26520,
      "Ġ<=": 13803,
      "ately": 5279,
      "uction": 31851,
      "95": 5735,
      "ĠTe": 1524,
      "Ġlink": 4759,
      "ĠUser": 5016,
      ".find": 17774,
      ".org": 3584,
      "me": 1995,
      "Ġgiven": 2329,
      "Out": 6959,
      "Ġbetter": 252,
      "Page": 19027,
      "Ġfeel": 1465,
      "enn": 4282,
      "ML": 6047,
      "Ġalready": 3500,
      "Ġincluding": 155,
      "ru": 4673,
      "ically": 4073,
      "prop": 24607,
      "lean": 10533,
      "outer": 22106,
      "Ġalways": 1339,
      "ording": 30207,
      "If": 1116,
      "orage": 26584,
      "Ġparent": 8048,
      "vis": 8223,
      "Ġgot": 2829,
      "stand": 3674,
      "Ġless": 2573,
      "/s": 3817,
      "ĠAss": 3126,
      "apt": 6172,
      "ired": 5881,
      "ĠAdd": 5043,
      "Ġaccount": 1962,
      "ploy": 25666,
      "Ġder": 510,
      "Ġlot": 3843,
      "Ġvalid": 130,
      "Ġbit": 4369,
      "Ġfollowing": 145,
      "SON": 24273,
      "Ġsure": 1660,
      "ocial": 7335,
      "Ġprom": 11940,
      "header": 16074,
      "Ġboolean": 19609,
      "Ġsearch": 1403,
      "ken": 1396,
      "Ġorig": 28433,
      "Ġer": 2432,
      "Ed": 3528,
      "EM": 5144,
      "aut": 5737,
      "ling": 4648,
      "ality": 5361,
      "bed": 6350,
      "46": 7955,
      "posit": 24943,
      "Ġinvest": 5115,
      "ĠOR": 1753,
      "Ġsays": 16663,
      "mission": 10278,
      "Ġtemp": 10003,
      "Ġrest": 3146,
      "info": 18314,
      "Ġinterest": 1992,
      "Ġperform": 987,
      "pons": 13561,
      "ĠView": 7355,
      "Ġver": 1466,
      "lib": 21055,
      "(const": 26708,
      "Util": 4191,
      "77": 11810,
      "Ġmult": 8869,
      "Ġdie": 702,
      "Ġsite": 1826,
      "EL": 5738,
      "Ġvalues": 219,
      "Ġ})Ċ": 19906,
      "pen": 10096,
      "No": 6521,
      "Ġbeh": 7292,
      "Ġ'./": 19632,
      "acy": 8303,
      "rec": 9046,
      "()->": 31617,
      "\"))": 22083,
      "Content": 508,
      "plement": 5913,
      "Ġwon": 3136,
      "Ġvideo": 3206,
      "adi": 8030,
      "point": 9807,
      "03": 4178,
      "Ġgl": 9087,
      "erved": 8324,
      "viron": 10087,
      "IF": 7713,
      "uted": 29646,
      "'m": 1071,
      "Ġcert": 13389,
      "Ġprof": 6746,
      "Ġcell": 4122,
      "ari": 5142,
      "Ġplayer": 3485,
      "ais": 2308,
      "Ġcost": 1514,
      "Ġhum": 7818,
      "(R": 11841,
      "ks": 1841,
      ".text": 14730,
      "atures": 11075,
      "Ġtotal": 2278,
      "Ġstat": 22228,
      "UM": 5425,
      "Ġload": 3685,
      "ights": 13054,
      "Ġclear": 1611,
      "uro": 7178,
      "Ġtechn": 2477,
      "upport": 22380,
      "IR": 5585,
      "Ġrow": 5224,
      "Ġseem": 7929,
      "Ġq": 12853,
      "Ġshort": 416,
      "ĠNot": 3733,
      "ipp": 18844,
      "Group": 5718,
      "section": 8407,
      "max": 9650,
      "irl": 28606,
      "Ġoverride": 18431,
      "Ġcompany": 135,
      "Ġdone": 3574,
      "Ġgre": 22941,
      "Ġbelie": 31683,
      "rist": 3440,
      "Ġhealth": 283,
      "ANT": 9897,
      "()ĊĊ": 6443,
      "ĠBe": 1726,
      ".value": 15265,
      "ĠGr": 4445,
      "Ġargs": 12608,
      "PT": 1586,
      "status": 24597,
      "func": 15430,
      "-h": 4090,
      "Number": 8547,
      "ĠLog": 6786,
      "Ġ),Ċ": 27059,
      "ament": 9519,
      "Ġobj": 31696,
      "inc": 10010,
      "Ġchildren": 1696,
      "IZ": 19830,
      "ands": 4313,
      "ably": 6293,
      "Ġdistrib": 26438,
      "Ġcur": 5317,
      "Ġdays": 679,
      "rect": 31645,
      "-l": 7530,
      "irm": 3466,
      "idden": 30470,
      "omb": 12947,
      "Ġinitial": 3967,
      ".js": 2919,
      "Ġâ": 29253,
      "Query": 14560,
      "Ġonline": 1135,
      "imal": 25094,
      ".con": 18877,
      "au": 2485,
      "Url": 10308,
      "Ġinstance": 6749,
      "ORT": 7791,
      "ĠFr": 6750,
      "where": 12734,
      "Ġorgan": 7665,
      "Ġreason": 8955,
      "59": 8399,
      "ĠMar": 6272,
      "(a": 10459,
      "Ġwithin": 172,
      "_DE": 542,
      "admin": 14059,
      "ended": 18017,
      "Ġdesign": 637,
      "ĠData": 1693,
      "une": 5125,
      "ĠFile": 7895,
      "root": 9326,
      "Ġcent": 10790,
      "Ġarr": 7416,
      "len": 5750,
      "page": 10595,
      "_str": 19428,
      "Ġbro": 15669,
      "ability": 1407,
      "58": 10596,
      "/c": 2024,
      "pose": 16857,
      "_url": 29526,
      "Http": 26509,
      "Ġschool": 486,
      "ava": 7934,
      "Ġconsider": 1614,
      "ĠArray": 19258,
      "42": 6361,
      "web": 15994,
      "opt": 13575,
      ".println": 7937,
      "ulation": 6273,
      "Ġfunc": 14404,
      "PL": 6754,
      "Ġ\"\\": 329,
      "ĠText": 8880,
      "actory": 20800,
      "(function": 25021,
      "Ġeng": 4096,
      "down": 8448,
      "Ġinclude": 52,
      "ĠEn": 2817,
      "ĠDr": 3547,
      "Ġdb": 11762,
      "side": 16082,
      "Ġinit": 17369,
      "quired": 25199,
      "ĠShe": 3445,
      "react": 14628,
      "Ġann": 7386,
      "Ġstop": 6975,
      "Ġlater": 6509,
      "ĠThat": 1639,
      "ention": 9922,
      "df": 8687,
      "UG": 23243,
      "ILE": 20734,
      "Ġclient": 710,
      "raft": 4039,
      "ffer": 29366,
      "POST": 14713,
      "Ġlove": 1557,
      "oud": 6274,
      "Ġjson": 11141,
      "Ġable": 693,
      "Ġmen": 5097,
      "AX": 18786,
      "Ã¶": 1043,
      "req": 19291,
      "Client": 5812,
      "});Ċ": 15145,
      "erc": 11315,
      "ilt": 14733,
      "pecial": 8364,
      "room": 8962,
      "Ġgive": 1915,
      "amb": 6960,
      "ike": 11812,
      "Ġcondition": 2115,
      "client": 10336,
      "ators": 2399,
      ":\"": 4571,
      "Ġcopy": 4106,
      "iversity": 8139,
      "ernal": 17711,
      "ĠCan": 1543,
      "do": 9236,
      "Ġocc": 22808,
      "Ġappro": 12484,
      "ze": 1978,
      "Ġeither": 3889,
      "ĠFl": 8017,
      "Ġimportant": 419,
      "Ġlead": 960,
      "attr": 27817,
      "ART": 13068,
      "Equal": 2241,
      "Ġda": 2715,
      "entity": 20298,
      "Ġfamily": 773,
      "Ġoption": 3067,
      "Ġexist": 4658,
      "ica": 2129,
      "ĠObject": 13743,
      "69": 8749,
      "'ve": 1151,
      "vers": 3252,
      "itional": 11747,
      "67": 10100,
      "output": 13452,
      "ĠTrue": 9546,
      "ĠOF": 4798,
      "_time": 13116,
      "Ġoffer": 421,
      "Ġ});ĊĊ": 28275,
      "HER": 12766,
      "\"\"": 10021,
      "Ġwater": 1012,
      "Ġche": 4765,
      "ĠMy": 4117,
      "ored": 15800,
      "Ġstep": 1418,
      "ances": 2984,
      "AY": 3597,
      "struction": 19858,
      "(C": 17410,
      "300": 2568,
      "ouch": 23382,
      "Stream": 18539,
      "active": 9950,
      "ama": 7562,
      "Entity": 15070,
      "product": 17019,
      "Ġgovernment": 1742,
      "ĠID": 207,
      "And": 2130,
      "Ġdisplay": 3750,
      "Ð»": 7185,
      "Ġtimes": 1750,
      "Ġfour": 2720,
      "Ġfar": 2978,
      "Ġpresent": 453,
      "ĠNS": 11745,
      "uest": 14339,
      "Ġbas": 6648,
      "echo": 22140,
      "child": 21630,
      "ifier": 11455,
      "Handler": 30348,
      "Ġlib": 13716,
      "Ġroom": 3250,
      "Ġonce": 3586,
      "Ġ[]": 15938,
      "center": 8492,
      "================================": 18096,
      "Ġresults": 1268,
      "Ġcontinue": 1463,
      "Ġtalk": 4551,
      "Ġgrow": 1473,
      "eb": 6843,
      "ĠPublic": 3828,
      "OP": 5659,
      "ols": 12529,
      "Ġ**": 69,
      "\");ĊĊ": 23059,
      "Ġmass": 7026,
      "ured": 6114,
      ".class": 27498,
      "Ġmean": 4536,
      "ips": 9680,
      "Ġaut": 7714,
      "Ġuntil": 2891,
      "Ġmarket": 1447,
      "Ġarea": 809,
      "uit": 4538,
      "Ġlength": 209,
      "ĠWith": 1030,
      "structor": 22787,
      "event": 19486,
      "\"><": 12970,
      "ĠSp": 5345,
      "IV": 12224,
      "Ġmus": 19210,
      "iff": 13554,
      "Ġkind": 3913,
      "author": 27486,
      "ounds": 18274,
      "mb": 11065,
      "_key": 11220,
      "41": 8193,
      "width": 17386,
      "Ġlight": 2590,
      "uk": 2712,
      "Row": 30709,
      "ohn": 10634,
      "alf": 21331,
      "Ġside": 3086,
      "Ġexample": 1091,
      "Ġcamp": 14003,
      "cribe": 15042,
      "255": 12089,
      "Ġmiss": 8708,
      "way": 8849,
      "Ġbased": 279,
      "Ġplan": 481,
      "Vis": 15538,
      "unk": 8078,
      "Ġaway": 3071,
      "UP": 9499,
      "OS": 4662,
      "iod": 16097,
      "ĠMon": 3908,
      "âĢĻre": 23585,
      "Ġlik": 22670,
      "Ã§": 9749,
      "ively": 3127,
      ".v": 9961,
      "imer": 9812,
      "izer": 10327,
      "Sub": 8331,
      "Ġbutton": 3960,
      "ĠUp": 3557,
      "Ġexperience": 84,
      "CL": 8586,
      "Ġrender": 17190,
      "_value": 5332,
      "Ġnear": 2496,
      "URL": 11338,
      "alt": 2872,
      "Ġcountry": 1024,
      "ibility": 2959,
      "57": 7266,
      "Ġauthor": 6727,
      "Ġspecific": 697,
      "base": 11205,
      "(name": 20882,
      "ones": 20909,
      "ĠDo": 407,
      "Ġalong": 1672,
      "year": 26579,
      "Ġexpress": 5725,
      ".'": 19201,
      "env": 8474,
      "Ġbegin": 3297,
      "Ġsoftware": 722,
      "Ġimp": 12631,
      "Ġwin": 6264,
      "Ã³n": 14378,
      "Ġthing": 5278,
      "Trans": 5888,
      "ĠTHE": 6196,
      "Ġwhy": 1187,
      "Ġdoesn": 4271,
      "ij": 2039,
      "ging": 7010,
      "Ġsingle": 278,
      "arning": 30941,
      "ograph": 19243,
      "ley": 5428,
      "Ġanal": 15551,
      "create": 23140,
      "/m": 4630,
      "ĠReg": 6852,
      "98": 12910,
      "=$": 21399,
      "isk": 5343,
      "Ġrights": 2577,
      "(M": 26805,
      "Ġ\"\"\"Ċ": 218,
      "aper": 13289,
      ".model": 23483,
      "Ġpo": 12287,
      "Ġant": 7057,
      "ĠWhen": 1411,
      "Ġwomen": 2816,
      "ĠEd": 10614,
      "Ġseason": 5121,
      "Ã£": 26965,
      "(h": 30135,
      "Ġpossible": 1063,
      "Ġdidn": 8696,
      "Ġsent": 5970,
      "Ġenc": 9866,
      "Ġcommand": 2741,
      "Ġ],Ċ": 19233,
      "Ġrecent": 1555,
      "olution": 9057,
      "vector": 19388,
      "ĠBy": 1778,
      "ĠMay": 3830,
      "ĠAct": 2009,
      "Ġmoney": 4468,
      "INT": 16000,
      "sl": 5352,
      "ĠClass": 5682,
      "Ġtold": 16088,
      "current": 13967,
      "Ġequ": 8859,
      "Ġauto": 5273,
      "ĠState": 912,
      "da": 7485,
      "Ġworking": 369,
      "Ġquery": 4305,
      "ĠBr": 5841,
      "Ġwindow": 5047,
      "auth": 24786,
      "Ġleast": 1072,
      "agn": 5456,
      "Ġexpl": 24957,
      "itter": 8478,
      "aring": 5091,
      "Ġcolumn": 5076,
      "ĠGeneral": 2096,
      "\":\"": 8996,
      "eral": 18066,
      "rior": 3808,
      "Ġrecord": 1310,
      "IB": 3629,
      "EX": 9527,
      "Ġdat": 7262,
      "Ġmaking": 784,
      "ued": 6382,
      "ĠCar": 5326,
      "emp": 11005,
      "\".": 4440,
      "ĠMed": 731,
      "Ġclose": 1947,
      "Ġpercent": 14602,
      "Ġpast": 2760,
      "(g": 24193,
      "Ġwrite": 2752,
      "Ġmove": 1964,
      "Ġpat": 15107,
      "Control": 10643,
      ".To": 31120,
      "Ġvi": 2987,
      "inate": 12813,
      "'ll": 579,
      "aged": 8172,
      "Ġspecial": 1426,
      "Ġcity": 1189,
      "ĠEng": 5164,
      "inary": 9266,
      "py": 8354,
      "Ġeff": 10170,
      "ario": 8994,
      "Ġtell": 2868,
      "avor": 15359,
      "Ġselect": 3728,
      "level": 24999,
      "imum": 29172,
      "oper": 13231,
      "Builder": 29444,
      "IP": 5468,
      "'),Ċ": 20414,
      "esc": 20071,
      "Ġfont": 6715,
      "\";ĊĊ": 25337,
      "ĠAm": 4578,
      "ished": 9147,
      "ills": 6501,
      "Inter": 3202,
      "OW": 10491,
      "Ġcourse": 1707,
      "Ġlate": 8297,
      "iddle": 12432,
      "43": 6886,
      "Ġamount": 785,
      "Ġasync": 16253,
      "ino": 3926,
      "cul": 17829,
      "Ġì": 11109,
      "_user": 19680,
      "Ġben": 8278,
      "ĠCal": 11151,
      "ĠRep": 5228,
      "Ġenough": 5476,
      "Token": 523,
      ".user": 27634,
      "Sc": 5457,
      "Width": 30087,
      "now": 14771,
      "Ġlooking": 620,
      "Ġhold": 2677,
      "Module": 18187,
      "ITY": 13476,
      "vo": 6497,
      "ison": 4982,
      ".Data": 27483,
      "yc": 13961,
      "Ġpot": 7536,
      "ĠTrump": 19324,
      "ides": 3258,
      "rt": 6161,
      "Ġproperty": 3166,
      "go": 7105,
      "Ġlow": 2065,
      "Ġpara": 1720,
      "Ġprice": 4596,
      "ury": 23611,
      "Ġtoday": 1181,
      "roy": 10466,
      "Ġ'/": 23134,
      "Ġpolit": 20184,
      "Ġ''": 22747,
      "Ph": 6324,
      "Ġadv": 30450,
      "Ġattack": 10349,
      "ĠSte": 6150,
      "400": 3407,
      "ana": 2824,
      "Ġmeans": 2127,
      "Ġstory": 878,
      "ids": 5371,
      "aken": 18479,
      "Ġmeet": 678,
      "ĠâĢĺ": 26006,
      "Ġden": 1248,
      "obile": 27450,
      "change": 18858,
      "ici": 3804,
      "na": 4558,
      "ĠForm": 5988,
      "Ġsort": 6058,
      "Select": 18083,
      "pare": 22589,
      "Ġthought": 3672,
      "_con": 19627,
      "Ġtask": 2852,
      "ĠDE": 4176,
      "ĠMin": 6240,
      "Ġopt": 7739,
      "umer": 24859,
      "KE": 26272,
      "then": 12223,
      "Ġdet": 8822,
      "ĠTest": 3838,
      "ports": 8101,
      "Ġreview": 1480,
      "('/": 15614,
      "Ġswitch": 7612,
      "ERT": 9900,
      "Ġabove": 1854,
      "itive": 1141,
      "56": 6607,
      "Ġquestion": 888,
      "ĠQu": 6099,
      "ãĢĤĊĊ": 3172,
      "gle": 13096,
      "Ġword": 3537,
      "Ġprovide": 213,
      "ĠReturn": 11084,
      "Ġresearch": 680,
      "Ã£o": 5458,
      "Ġpublish": 16508,
      "}}": 27010,
      "ĠCON": 12421,
      "-in": 2136,
      "Ġcover": 2062,
      "\\\\": 21921,
      "color": 12929,
      "ĠIS": 7336,
      "Ġwhether": 3179,
      "imate": 6676,
      "isc": 2757,
      "Bar": 14656,
      "Ġdiv": 19791,
      "Be": 2224,
      "ourn": 15816,
      "Ġhaving": 3101,
      "lem": 6967,
      "player": 18549,
      "abs": 6916,
      "ney": 10435,
      "Ġexc": 11311,
      "ao": 18714,
      "ipe": 13513,
      "show": 29352,
      "/d": 257,
      "[:": 21208,
      "agement": 8658,
      "lev": 11087,
      "_ID": 17125,
      "97": 16132,
      "ades": 6049,
      "ause": 13282,
      "Ġemploy": 5847,
      "Ġfre": 3046,
      "Ġ'@": 18113,
      "Ġcomplet": 17467,
      "Ġlarge": 1226,
      "ral": 12575,
      "Ġfac": 21053,
      "<String": 16790,
      "Ġcreated": 2509,
      "uper": 20510,
      "Ġhost": 5976,
      "/b": 6850,
      "while": 23254,
      "ias": 5618,
      "Ġrole": 305,
      "Reg": 5510,
      "ĠColor": 7315,
      "Start": 210,
      "top": 15282,
      "Ġweb": 1688,
      "Ġdev": 9437,
      "Ġdeal": 6681,
      "position": 8610,
      ".on": 19860,
      "Ġ(\"": 10925,
      "ä¸": 26806,
      "Ġproblem": 1052,
      "sv": 4860,
      "Ġpress": 6908,
      "ABLE": 18857,
      "ATION": 4200,
      "ĠSee": 14592,
      "anch": 25671,
      "Ġthough": 11916,
      "Ġ<!--": 16969,
      "Ġpoints": 289,
      ".J": 14505,
      "Ġ::": 26049,
      "ptr": 24034,
      "DB": 5432,
      "++;Ċ": 24456,
      ".png": 26536,
      "node": 14142,
      "pond": 19730,
      "Ġever": 3538,
      "Menu": 26495,
      "Ġservices": 266,
      "pg": 11955,
      "})Ċ": 20559,
      "Ġactually": 5999,
      "Ġ\"/": 20289,
      "Method": 8947,
      "Ġident": 10468,
      "unic": 19489,
      "Ġmillion": 3617,
      "Ġaff": 10629,
      "style": 14596,
      "Ġconc": 6816,
      "ios": 4567,
      "ULT": 25110,
      "Pr": 4303,
      "Ġunderstand": 1000,
      "uary": 30585,
      "Ġhappen": 6914,
      "Ġserver": 2661,
      "ĠCo": 3993,
      "SC": 4426,
      "Ġles": 659,
      "Ġfiles": 2412,
      "Grid": 20729,
      "sql": 8332,
      "Ġoften": 967,
      "Ġinfo": 9340,
      "_tr": 24361,
      "src": 16439,
      "ony": 19464,
      "Ġspace": 1594,
      "umb": 12583,
      "Ġpassword": 5667,
      "Ġstore": 2403,
      "ĠWhat": 1431,
      "ged": 12872,
      "ĠFalse": 14408,
      "Us": 6012,
      "swer": 22440,
      "_index": 11696,
      "Ġformat": 174,
      "most": 19102,
      "sm": 3490,
      "New": 8624,
      "Ġdetails": 1266,
      "Ġprob": 28679,
      "ĠAND": 2292,
      "ilar": 30397,
      "Ġ${": 13098,
      "ĠFree": 3171,
      "_of": 18350,
      "Ġ>>": 28677,
      "Ġface": 2320,
      "Ġsave": 4080,
      "Ġtyp": 25121,
      "dev": 19082,
      "AGE": 26400,
      "edit": 13217,
      "QL": 16828,
      "Ġitems": 2105,
      "Ġsocial": 144,
      "ien": 1075,
      "ĠReact": 4443,
      ").ĊĊ": 5478,
      "Ġmar": 7229,
      "Ġredu": 30922,
      "ĠRE": 7684,
      ".put": 25512,
      "Ġmajor": 1746,
      "Cell": 21922,
      "next": 22979,
      "Ġexpected": 1910,
      "Ġyet": 4962,
      "tributes": 14682,
      "atis": 9201,
      "amed": 14746,
      "Ġfood": 777,
      "Source": 9231,
      "(string": 24783,
      "ites": 7245,
      "dr": 6413,
      "Ġmembers": 741,
      "Ġcomb": 20100,
      "items": 24598,
      "ĠPer": 1608,
      "TH": 16007,
      "=True": 11196,
      "Ġbar": 4974,
      "comm": 15535,
      "(w": 20746,
      "Ġsend": 2137,
      "Ġinc": 11149,
      "FA": 6034,
      "Ġparams": 24616,
      "apping": 23308,
      "ros": 7157,
      "fa": 9073,
      "Ġconnection": 2835,
      "Ġ};ĊĊ": 21792,
      "Ġbecome": 1402,
      "Mode": 21823,
      "Ġev": 11773,
      "Ġdiff": 26016,
      "ĠUnited": 1238,
      "fully": 2737,
      "images": 23986,
      "Ġmakes": 443,
      "Ġglobal": 1202,
      "Ġcontact": 931,
      "':Ċ": 18617,
      "Ġabs": 14958,
      "float": 16203,
      "Ġexcept": 8573,
      "ĠPol": 11122,
      "Child": 20050,
      "Ġcertain": 2716,
      "iÃ³n": 6424,
      "OUT": 25495,
      "iles": 6262,
      "Ġ-->Ċ": 15290,
      "ĠPart": 2538,
      "values": 19682,
      "oss": 2951,
      "ilit": 3452,
      "ĠEvent": 7982,
      "ster": 5483,
      "Ġcharacter": 3465,
      "198": 3453,
      "Ġnews": 5159,
      "Ġ\",": 21905,
      "Ġdevice": 3119,
      "cel": 22366,
      "login": 31552,
      "heet": 29657,
      "click": 16226,
      "(value": 25185,
      "ĠAb": 2981,
      "Ġprevious": 478,
      "ocal": 31604,
      "Ġmaterial": 2762,
      "Ġbelow": 1572,
      "ĠChrist": 16480,
      "Ġmedia": 164,
      "cover": 29645,
      "ĠUI": 7976,
      "Ġfail": 15641,
      "Ġblack": 4866,
      "Ġcomponent": 4058,
      "ĠAmerican": 1605,
      "Ġadded": 490,
      "Ġbuy": 8014,
      "stit": 18819,
      "Ġcame": 9672,
      "Ġdelete": 9774,
      "oding": 15809,
      "Ġcard": 4846,
      "rops": 19169,
      "Ġhttps": 1801,
      "Ġroot": 3799,
      "Ġhandle": 1771,
      "CC": 2731,
      "Back": 23276,
      "Ġgetting": 5002,
      "_by": 27378,
      "mail": 28743,
      "ĠDec": 11026,
      "Ġcomput": 18538,
      "Ġclaim": 6710,
      "ĠSub": 6548,
      "Ġair": 2630,
      "ops": 10849,
      "nav": 7902,
      "ements": 3869,
      "(id": 20813,
      "Ġenter": 4716,
      "End": 7555,
      "Ġlocation": 370,
      "Ġnight": 2876,
      "Ġdoing": 3622,
      "ĠRed": 3702,
      "lin": 2976,
      "Ġpick": 7533,
      "Ġwatch": 11510,
      "Ġhuman": 923,
      "Ġdam": 22348,
      "pend": 12510,
      "dir": 27356,
      "Ġtax": 791,
      "Ġgirl": 15496,
      "reet": 15797,
      "Ġbox": 6629,
      "Ġstrong": 621,
      "(v": 24211,
      "rel": 12044,
      "Ġinterface": 3532,
      "Ġmsg": 26157,
      "fect": 17297,
      "_at": 26749,
      "Ġhouse": 4606,
      "Ġtrack": 1698,
      "');ĊĊ": 12589,
      "je": 4250,
      "ĠJohn": 6426,
      "istr": 21176,
      "(S": 13693,
      "ube": 20463,
      "Ġce": 4140,
      "parent": 18166,
      "Ġapplication": 733,
      "any": 14427,
      "Ġpack": 13540,
      "Ġpract": 26662,
      "Ġsection": 4783,
      "ĠOne": 1377,
      "Ä±": 27412,
      "aid": 1312,
      "Ñĥ": 4514,
      "Ġwait": 5009,
      "ĠÃł": 644,
      "Ã¥": 3415,
      "Ġtogether": 1140,
      "FO": 14355,
      "host": 22721,
      "ising": 3643,
      "Ġterms": 2794,
      "-r": 13692,
      "Ġapply": 133,
      "Ġsession": 9787,
      "Options": 16914,
      "uggest": 24796,
      "Ġothers": 938,
      "Ġfund": 7865,
      "Init": 12418,
      "__(": 13128,
      "ensor": 31857,
      "GET": 15683,
      "Ġseveral": 1404,
      "ii": 8057,
      "[j": 14972,
      "IO": 10056,
      "Ġtemplate": 9304,
      "Position": 1274,
      "achine": 28903,
      "Ġil": 3851,
      "main": 6255,
      "elt": 3850,
      "iment": 5791,
      "Rec": 4097,
      "mm": 8847,
      "ĠUniversity": 738,
      "GL": 19172,
      "cer": 9571,
      "cast": 24737,
      "From": 6777,
      "ales": 3326,
      "Ġsubject": 1575,
      "password": 19420,
      "ny": 18962,
      "Ġesc": 22030,
      ".write": 15124,
      "ï¼Į": 1685,
      "What": 975,
      ".H": 13028,
      "Ġhistory": 1154,
      "ĠFe": 7580,
      "Ġindividual": 595,
      "unit": 7471,
      "Ġ-->": 13292,
      "Ġdu": 677,
      "IST": 6556,
      "Ġusers": 626,
      "fs": 5648,
      "false": 21871,
      "unt": 6907,
      "Title": 9819,
      "Ġmot": 16036,
      "Ġfuture": 1001,
      "Ġstarted": 2506,
      "Ġmode": 6321,
      "Ġ'<": 27141,
      "_array": 20494,
      "Ġax": 22049,
      "ires": 6291,
      "There": 6795,
      "ught": 30700,
      "Ġtook": 9525,
      "Ġgames": 5133,
      "Ġproducts": 872,
      "Is": 3899,
      "Ġbad": 10886,
      "ĠDes": 3387,
      ".path": 12647,
      "'ĊĊ": 17700,
      "ĠPost": 3060,
      "avel": 13154,
      "150": 2239,
      "Ġneeds": 371,
      "Ġknown": 1354,
      "Fl": 7728,
      "Ġseen": 3072,
      "51": 8505,
      "ume": 10789,
      "Ġborder": 7940,
      "Ġlive": 1539,
      "Per": 2091,
      "Ġvariable": 4102,
      "iet": 3613,
      "ĠDef": 9648,
      "Ġge": 2858,
      "eme": 12347,
      "first": 20168,
      "Ġprovided": 1038,
      "Ġfilename": 10590,
      "Ġhope": 3195,
      "auto": 19129,
      "find": 14892,
      "_string": 9911,
      "itude": 6432,
      "Ġyoung": 3493,
      ".txt": 9516,
      "Ġwebsite": 1489,
      "ĠProp": 18283,
      "ional": 6178,
      "ARR": 11856,
      ".</": 23,
      "ALL": 19173,
      "Ġstudy": 2366,
      "ili": 5627,
      "Ġnetwork": 882,
      "yl": 10309,
      "istance": 10982,
      "OK": 5806,
      "NU": 24583,
      "rest": 11660,
      "ĠST": 8353,
      "Ġlimit": 5021,
      "Ġcut": 10222,
      "():Ċ": 8049,
      "Ġcou": 14625,
      "ogn": 20912,
      "Ġsizeof": 28998,
      "ival": 4510,
      "Ġwent": 11590,
      "Link": 12132,
      "Ġfire": 4184,
      "Ġacross": 624,
      "Ġcommunity": 449,
      "region": 20938,
      "NE": 9794,
      "Ref": 997,
      "Ġofficial": 4310,
      "Ġvisit": 1260,
      "olve": 14858,
      "Ġreceived": 3068,
      "Ġtoken": 9502,
      "Ġmonths": 1732,
      "Ġanim": 24549,
      "Ġparticular": 485,
      "styles": 27820,
      "ico": 3721,
      "Ġess": 8733,
      "87": 14683,
      "ĠÃ©": 1253,
      "ball": 12633,
      "Ġlearn": 947,
      "inding": 27795,
      "Var": 11193,
      "One": 2678,
      "Ġ~": 13085,
      "fort": 24286,
      "asure": 31718,
      "Ġmind": 1845,
      "ĠEnd": 3321,
      "Check": 6289,
      "Ġquick": 5031,
      "\"),": 21828,
      "AND": 5516,
      "utions": 15899,
      "Base": 12269,
      "Ġcomment": 10800,
      "INE": 12869,
      "But": 4978,
      "ĠEl": 4786,
      "ĠUs": 1585,
      "Ġadmin": 10000,
      "mark": 12034,
      "ĠName": 4609,
      "`Ċ": 1360,
      "ĠType": 645,
      "pc": 14877,
      "FT": 5046,
      "Ġopp": 23373,
      "Ġpur": 19151,
      "uel": 9346,
      "uation": 8040,
      "anger": 11078,
      "Ġbackground": 1103,
      "ecess": 31885,
      "Ġdescription": 30,
      "Ġrepresent": 3113,
      "pression": 20861,
      "Ġseries": 4264,
      "wards": 11612,
      "52": 6479,
      "aise": 14173,
      "Ġhot": 5616,
      "acity": 11949,
      "ries": 8112,
      "actions": 11121,
      "Create": 6657,
      "adio": 31877,
      "Ġoriginal": 66,
      "ensive": 1471,
      "font": 7936,
      "stream": 2444,
      ".springframework": 26746,
      "001": 12084,
      "server": 17799,
      "Ġbill": 5906,
      "Ġframe": 10552,
      "Edit": 20674,
      "Ġdraw": 6660,
      "anks": 13815,
      "Ġdeter": 17623,
      "Ġcomes": 2913,
      "angle": 31809,
      "Ġelect": 17140,
      "pected": 16001,
      "Header": 30964,
      "istration": 19338,
      "ĠGame": 12878,
      "Ġfilter": 5973,
      "inition": 23005,
      "256": 11434,
      "ised": 8219,
      "Ġremove": 5018,
      "ĠTrans": 5904,
      "met": 7109,
      "see": 2775,
      "Format": 529,
      "Command": 22361,
      "ĠEX": 18927,
      "None": 13040,
      "Ġfront": 4130,
      "ASE": 28187,
      "ĠRec": 4549,
      "Ġvo": 6100,
      "96": 12442,
      "Change": 20055,
      "group": 15759,
      "ients": 24003,
      "uy": 11413,
      "Ġdig": 5666,
      "hr": 1761,
      "(-": 20060,
      "Ġgen": 8944,
      "number": 13502,
      "vec": 18973,
      "entry": 16772,
      "LL": 9198,
      "Ġste": 8467,
      "Valid": 2237,
      "'],": 10187,
      "Ġselected": 3370,
      "Ġaccording": 2011,
      "ĠDis": 6133,
      "Ġutil": 12043,
      "Ġassoci": 18725,
      "Ġprintf": 21883,
      "rag": 9545,
      "Âł": 4147,
      "DD": 7758,
      "ĠVal": 8535,
      "Ġactiv": 5148,
      "Eng": 4968,
      "etime": 21020,
      "Ġvirtual": 2313,
      "aur": 12005,
      "ĠPres": 14984,
      "ĠException": 9994,
      "Ġanything": 2928,
      "ĠOff": 2384,
      "Ġhours": 191,
      "Ġwar": 5088,
      "aging": 4183,
      "Ġmodels": 1803,
      "ĠTime": 1105,
      "Ob": 8283,
      "ams": 11429,
      "Ġearly": 2626,
      ".read": 10765,
      "86": 11480,
      "Ġcenter": 1587,
      "ĠInitial": 21989,
      "Ġlanguage": 58,
      "length": 21511,
      "Ġsn": 13798,
      "Ġinf": 10085,
      "Post": 6284,
      "Ġago": 11107,
      "Ġeasy": 2472,
      "_code": 151,
      "ĠANY": 25536,
      "Ġdownload": 14680,
      "(T": 8222,
      "aved": 30465,
      "âĢĵ": 9280,
      "Ġstudents": 358,
      "Ġfig": 30316,
      "light": 12037,
      "Ġbuffer": 20837,
      "ĠDep": 6981,
      "ĠMath": 8170,
      "Ġvari": 10109,
      "Ġdue": 2250,
      "Factory": 25978,
      "Ġpor": 4202,
      "Ġep": 14909,
      "Ġcannot": 3719,
      "Ġwhite": 6673,
      "tern": 12436,
      "Ġregister": 11963,
      "Ġpred": 19742,
      "clus": 20481,
      "_date": 14791,
      "Ġauth": 24717,
      "Ġ[]Ċ": 13779,
      "Ġperiod": 2521,
      "Ġscreen": 3974,
      "'d": 1822,
      "Types": 13467,
      "ural": 6829,
      "Ġbenef": 19222,
      "_y": 23285,
      "Ġnet": 4947,
      "ĠStates": 1372,
      "ĠNe": 5363,
      "ĠNOT": 7573,
      "Ġneg": 16805,
      "102": 11498,
      "Ġcommon": 2190,
      "Ġcred": 12612,
      "ges": 5724,
      "Ġsuggest": 4156,
      "Ġaccept": 5027,
      "Ġrandom": 4392,
      "erm": 2857,
      "ĠVector": 26986,
      "with": 6672,
      "TER": 17077,
      "(str": 30760,
      "Ġrespons": 5688,
      "Ġhit": 7678,
      "grid": 24713,
      "ria": 4065,
      "Ġclick": 176,
      "Case": 10419,
      "insert": 19080,
      "Utils": 27314,
      "Ġ\"\"\"": 150,
      "Ġimplement": 832,
      "atal": 4394,
      "template": 18713,
      "ocr": 31679,
      "Ġplayers": 6954,
      "users": 18521,
      "ĠThese": 1409,
      "Ġamong": 1961,
      "Ġdeb": 15008,
      "ha": 5203,
      "Ġcirc": 22885,
      "Ġanswer": 846,
      "Ġwalk": 3603,
      "Ġtreat": 3706,
      "ĠGe": 7306,
      "ĠCreate": 2260,
      "Ġage": 915,
      "Ġreq": 19003,
      "OST": 11400,
      "angular": 18975,
      "Ñı": 6021,
      "Ġfive": 2739,
      "53": 7347,
      "Ġdistributed": 5499,
      "Ġfriend": 4051,
      "TP": 12007,
      "Ġclean": 1708,
      "ows": 8580,
      "dis": 10752,
      "Ġwords": 173,
      ".io": 11519,
      "zy": 16299,
      "Ġheader": 13623,
      "ĠCheck": 3138,
      "âĢĻm": 31703,
      "just": 31020,
      "holder": 5388,
      "ĠGNU": 20554,
      "ĠCol": 8803,
      "entic": 21693,
      "Ġtre": 7588,
      "last": 21695,
      "la": 5178,
      "ĠYork": 1690,
      "Lo": 31155,
      "Ġdiscuss": 3681,
      "ĠGod": 6637,
      "Ġissue": 1606,
      "rew": 10635,
      "Window": 18121,
      "Ġland": 2274,
      "120": 1568,
      "Ġstream": 12175,
      "ĠPar": 5122,
      "Ġquality": 463,
      "Par": 13516,
      "_num": 18360,
      "54": 8828,
      "Ġsal": 4698,
      "ORD": 28271,
      "(user": 21538,
      "Ġworks": 1591,
      "Ġhalf": 8263,
      "enses": 4858,
      "Ġpolice": 7698,
      "(\"/": 25422,
      "ua": 5937,
      "Ġsimple": 2372,
      "Address": 8526,
      "Ġempty": 5811,
      "esh": 17955,
      "128": 12893,
      "Update": 10398,
      "('.": 25105,
      ").Ċ": 2807,
      "ĠFROM": 15571,
      "Ġcook": 6231,
      "Ġeverything": 2043,
      "ilities": 12896,
      ".status": 15565,
      "Ġrelations": 4633,
      "Ġnothing": 12395,
      "Ġrunning": 3569,
      "RI": 7083,
      "_a": 16572,
      "por": 14945,
      "ĠCity": 1613,
      "ĠWest": 2380,
      "store": 20710,
      "oder": 10728,
      "Ġna": 4564,
      "Ġ[[": 19017,
      "Ġ('": 26005,
      "ĠDon": 6357,
      "ERS": 6401,
      "/p": 4049,
      ".json": 10265,
      "abor": 746,
      "Ġsomeone": 3286,
      "_text": 10341,
      ".css": 14449,
      "ĠSome": 1704,
      "ato": 4332,
      "Ġshare": 1326,
      "(void": 21908,
      "_dir": 24480,
      "Ġur": 15453,
      "Stack": 15394,
      "ĠWorld": 2276,
      ".X": 25444,
      "How": 2431,
      "Ġentry": 3741,
      "Ġchanges": 1242,
      "Ġpersonal": 854,
      "(A": 21865,
      "Ġoffset": 13367,
      "Ġpie": 29547,
      "ĠJan": 14329,
      "module": 26914,
      "Items": 28766,
      "ĠHowever": 1502,
      "verage": 7947,
      "Ġevents": 1136,
      ".min": 25970,
      "za": 4262,
      "Ġwhole": 3343,
      "Ġneeded": 276,
      "Ġlikely": 2889,
      "rief": 23975,
      "ORM": 28802,
      "version": 12186,
      "Ġfight": 14326,
      "Ġein": 1262,
      "197": 5365,
      "gen": 2771,
      "ĠOut": 4568,
      "Length": 11679,
      "illed": 3177,
      "quence": 28537,
      "ĠSoftware": 2344,
      "Ġwriting": 1714,
      "Ġrate": 1335,
      "'],Ċ": 28562,
      "Panel": 22071,
      "inner": 27733,
      "Ġ[\"": 5162,
      "Ġtw": 25672,
      "cd": 16862,
      "ĠSm": 12638,
      "ĠMark": 8063,
      "))ĊĊ": 15065,
      "method": 26493,
      "Icon": 26039,
      "Ġcorrect": 2003,
      "ĠMore": 3117,
      "Ġfall": 9140,
      "Ġvol": 8232,
      "Ġdevelopment": 271,
      "ently": 7228,
      "Ġsi": 4297,
      "medi": 23238,
      "ving": 3921,
      "PP": 11397,
      "aker": 20750,
      "Ġelif": 15236,
      "Ġpret": 22197,
      "Ġbelieve": 1357,
      "ns": 6753,
      "omet": 14050,
      "123": 6538,
      "ĠIntern": 8855,
      "So": 3675,
      ".error": 17168,
      "Read": 9283,
      "Ġfeatures": 1479,
      "Ġminutes": 4588,
      "---": 16917,
      "asing": 6158,
      "cret": 29926,
      "Ġcollection": 2663,
      "'.": 17009,
      "Ġsimilar": 137,
      "Ġtaken": 4540,
      "(\"%": 28582,
      "Order": 11668,
      "']Ċ": 17859,
      "ĠTH": 11666,
      "aced": 26007,
      "Ġisn": 6485,
      "/j": 10802,
      "Ġson": 3396,
      "graph": 20020,
      "ĠInteger": 27846,
      "Ġnecess": 13338,
      "Ġum": 1581,
      "Ġmoment": 6101,
      "Ġbring": 1745,
      "Ġindic": 23448,
      "ysis": 9559,
      "Level": 12626,
      "verse": 23451,
      "_test": 16972,
      "Ġentire": 2498,
      "Down": 30237,
      "(result": 27995,
      "ĠRead": 7539,
      "Ã¨": 4083,
      "Mod": 8214,
      "Ġtrying": 3696,
      "Ġmember": 897,
      "ĠCor": 7953,
      "-control": 17643,
      "ĠSim": 9276,
      "plot": 16233,
      "_on": 26478,
      "Ġphys": 17373,
      "acc": 6472,
      "ARE": 14773,
      "89": 15761,
      "Ġfoot": 10932,
      "Ġboard": 2997,
      "part": 6123,
      "Ġsus": 27787,
      "wise": 29106,
      "ĠMc": 11288,
      "Ġpush": 4186,
      "Ġplease": 755,
      "ried": 12899,
      "bit": 11150,
      "ided": 29052,
      "VE": 7864,
      "ĠSw": 19911,
      "UB": 17348,
      "Ġtypes": 2435,
      "edia": 26161,
      "When": 2013,
      "Ġedit": 9903,
      "Ġenerg": 15821,
      "Container": 25981,
      "Ġphot": 21887,
      "ĠCount": 24376,
      "ĠEurope": 5787,
      "ĠStr": 2037,
      "Ġpy": 8375,
      "Ġcult": 20985,
      "Ġdefined": 3788,
      "Ġthread": 13300,
      "ille": 5386,
      "Ġinstead": 1807,
      "strong": 482,
      "ĠSec": 16356,
      "URE": 16111,
      "Ġidea": 2523,
      ".se": 24897,
      "emy": 16846,
      "acing": 9657,
      ".next": 20983,
      "Ġcoll": 12257,
      "Ġfilm": 8681,
      "istic": 5843,
      "Ġcompet": 6454,
      "Ġconn": 8786,
      "Ġteach": 2945,
      "=(": 18780,
      "Ġphone": 170,
      "Ġactive": 1636,
      "79": 14221,
      "delete": 18879,
      "101": 11406,
      "Ġmo": 13283,
      "Ġdeath": 6199,
      "});ĊĊ": 17765,
      "ocol": 26057,
      "Widget": 15036,
      "Ġarticle": 7006,
      "andid": 14409,
      "Ñĭ": 2977,
      "ĠCr": 11283,
      "ka": 2068,
      "():": 26323,
      "lood": 27944,
      "Ġalmost": 13811,
      "Ġsell": 9320,
      "ervlet": 16342,
      "rip": 22160,
      "Unit": 4806,
      "Ġapplic": 16840,
      "Ġconnect": 1891,
      "Ġfeature": 3587,
      "Ġvia": 2064,
      "Ġlim": 16841,
      "ĠGu": 11318,
      "Engine": 21253,
      "Ġens": 24120,
      "Ġenvironment": 249,
      "block": 20497,
      "gy": 22788,
      "tag": 12263,
      ")).": 23853,
      "exp": 5822,
      "Ġcompl": 5072,
      "Ġinstall": 3178,
      "Ġcomplete": 253,
      "Ġgeneral": 1281,
      "Ġasked": 7784,
      "ores": 8693,
      "Ġreserved": 8444,
      "SP": 4909,
      "ÅĤ": 13076,
      "Ġsignific": 16415,
      "Off": 13866,
      "ĠAg": 7921,
      "ĠJust": 8771,
      "ĠError": 15269,
      "Ġicon": 13301,
      "''": 27977,
      "?.": 29272,
      "account": 27096,
      "Ġ(*": 21779,
      "')ĊĊ": 8587,
      "rap": 22077,
      "ĠFOR": 6440,
      "Ġparty": 7472,
      "ĠYour": 622,
      "cat": 10716,
      "stry": 6633,
      ".new": 30542,
      "boot": 27468,
      "ĠNov": 9058,
      "Ġvector": 9321,
      "Ġnormal": 6445,
      "Ġfurther": 1736,
      "800": 3732,
      "Ġdatabase": 2249,
      "Ġmusic": 1828,
      "Ġspeed": 4021,
      "Ġdoc": 18330,
      "process": 13216,
      ".parse": 27083,
      "Ġtaking": 1943,
      "ceed": 30861,
      "ĠAfter": 4818,
      "Ġforward": 2029,
      "rot": 12221,
      "Ġfailed": 14917,
      "Ġconcern": 4771,
      "oe": 9409,
      "ba": 7368,
      "Ġterm": 2427,
      "has": 12028,
      "Ġpotential": 827,
      "Num": 30378,
      "Ġpublished": 8240,
      ".close": 22128,
      "ĠImage": 9566,
      "UD": 19734,
      "ĠOb": 6208,
      "Ġprobably": 13311,
      "lim": 7925,
      "\":Ċ": 18217,
      "76": 12378,
      "ensions": 29093,
      "-year": 2883,
      "-sm": 29103,
      "Ġenjoy": 1166,
      "orig": 28911,
      "ering": 3973,
      "plements": 17899,
      "Ġreturns": 4251,
      "pat": 30858,
      "BO": 13827,
      "ĠHouse": 5404,
      "Ġweight": 4777,
      "Ġconditions": 1067,
      "Ġexception": 8397,
      "description": 9247,
      "Ġtrad": 20990,
      "-to": 1114,
      "Ġ{}": 29881,
      "Ġmodule": 5614,
      "END": 19442,
      "Ġconstructor": 16583,
      "aves": 11975,
      "Ġfavor": 11058,
      "ĠNow": 5313,
      "ĠMain": 6851,
      "eries": 12863,
      "âĢĻll": 29340,
      "transform": 28106,
      "Pre": 3087,
      "Ġmer": 11415,
      "Location": 1146,
      "_NAME": 16767,
      "Ġloss": 3023,
      "ĠĊĊ": 12297,
      "net": 6571,
      "Ġengine": 5697,
      "Block": 19381,
      "Ġissues": 770,
      "Ġparse": 12326,
      "ĠBar": 7375,
      "Ġstay": 2740,
      "ĠJSON": 20,
      "Ġdom": 14809,
      "airs": 10852,
      "Ġlower": 4395,
      "ĠDem": 5584,
      "ufact": 29522,
      "Ġperfect": 2002,
      "RL": 22234,
      "Ġeduc": 16586,
      "ls": 8735,
      "uge": 7412,
      "Ġexact": 7190,
      ".key": 19342,
      "ech": 5381,
      "ief": 5475,
      "oke": 11900,
      "Ġformer": 7235,
      "Ġsix": 4513,
      "ida": 6774,
      "Ġmargin": 8707,
      "Ġheart": 1862,
      "ald": 7507,
      "pack": 13228,
      ".getElementById": 16177,
      "Ġrather": 1904,
      "Ġbuilding": 1004,
      "erman": 21228,
      "Ġquestions": 944,
      "izes": 2571,
      "lege": 2939,
      "Ġje": 1340,
      "Ġcas": 3392,
      "props": 28045,
      "utf": 26563,
      "Ġsecurity": 823,
      "Ġhowever": 7682,
      "weight": 25288,
      "Ġinside": 496,
      "Ġpresident": 17492,
      "Char": 13568,
      "ĠWITH": 16014,
      ".map": 20114,
      "Ġgraph": 7039,
      "Ġtag": 9472,
      "_status": 29844,
      "Ġattempt": 12566,
      "opp": 23630,
      "uses": 2789,
      "Ġround": 11602,
      ",$": 13979,
      "Ġfriends": 3260,
      "Email": 21467,
      "Resource": 8820,
      "KEY": 24625,
      "osp": 12319,
      "ĠNorth": 1507,
      "ables": 3673,
      "ello": 13804,
      "That": 10018,
      "Ðº": 11216,
      "ĠPresident": 5204,
      "Ġcampaign": 8921,
      "Ġalt": 16732,
      "area": 7508,
      "Ġopport": 11282,
      "Ġenergy": 850,
      "like": 15342,
      "ington": 8805,
      ")*": 26698,
      "yy": 21320,
      "Ġprofession": 2759,
      "irth": 16056,
      "Ġseg": 10277,
      "Ġhor": 6717,
      "iers": 3222,
      "can": 5922,
      "Ġbehind": 4055,
      "Product": 11068,
      "ĠSk": 4996,
      ".jpg": 19034,
      "?:": 6893,
      "];ĊĊ": 22958,
      "Ġcallback": 24557,
      "ĠHttp": 29822,
      "ÑĮ": 7744,
      "long": 15119,
      "MS": 2271,
      "Ġraise": 4103,
      "Ġwanted": 8295,
      "rown": 16362,
      "utor": 23057,
      "lt": 8832,
      "eline": 10479,
      "MA": 3783,
      "Ġsepar": 26148,
      "cs": 14678,
      "Dis": 5502,
      "ĠWill": 3412,
      "Ġpolicy": 1427,
      "Ġthird": 3345,
      "phone": 16472,
      "Ġbed": 4094,
      "/g": 7256,
      "ĠInc": 1023,
      "izing": 1872,
      ".type": 31418,
      "Ġserv": 9416,
      "Each": 12545,
      "Ġhar": 5300,
      "ĠMessage": 16290,
      "(key": 19794,
      "SELECT": 16891,
      "Pos": 20295,
      "Ġtraining": 493,
      "ĠEnt": 4622,
      "ĠChar": 12185,
      "icht": 2767,
      "(file": 8607,
      "Ġprior": 2069,
      "Game": 21977,
      "Ġexit": 12998,
      "Params": 22930,
      "PC": 3276,
      "nes": 8731,
      "anced": 9153,
      "Password": 18155,
      "Ġmag": 7871,
      "Ġrelease": 4697,
      "Ġshall": 5101,
      "udent": 30142,
      "ĠSouth": 2000,
      "ando": 3486,
      ":'": 26102,
      "sk": 2912,
      "anner": 9202,
      "Ġoutside": 131,
      "ĠRob": 10201,
      "Ġimm": 13676,
      "!Ċ": 11648,
      "ĠWeb": 3680,
      "Des": 4853,
      "BC": 4772,
      "Route": 29917,
      "Dec": 20106,
      "ferences": 28038,
      "ĠModel": 4841,
      "ctor": 29617,
      "gn": 13374,
      "_start": 21046,
      ".*": 8221,
      "ises": 3717,
      "Ġground": 4690,
      "Ġunique": 171,
      "{\"": 119,
      "Ġpour": 1025,
      "ĠOct": 21418,
      "Ġtree": 4566,
      "sets": 9901,
      "(\"\\": 25999,
      "Ġbyte": 23078,
      "Bl": 21301,
      "Ġdating": 10939,
      "Ġmatter": 2157,
      "ĠRem": 8601,
      "ĠAug": 10675,
      "ĠLa": 2954,
      "111": 17296,
      "iam": 9094,
      "Ġshows": 6721,
      "write": 30800,
      "Ġball": 8471,
      "Ġsimply": 5571,
      "Ġfast": 1085,
      "Ġmemory": 4371,
      "ASS": 17851,
      "ĠOf": 9691,
      "ante": 2688,
      "aul": 18059,
      "istry": 8047,
      "Ġfit": 1580,
      "Ġpolitical": 5393,
      "card": 13002,
      ".current": 22668,
      "och": 9427,
      "Ġindustry": 487,
      "coming": 16430,
      "Ġextra": 3223,
      "600": 1811,
      "Ġreported": 7075,
      "Ġresources": 807,
      "Ġimg": 18691,
      "flow": 12108,
      "ĠPre": 3653,
      "Ġwrong": 10622,
      "interface": 27628,
      "ners": 7203,
      "ture": 13532,
      "Ġseems": 4177,
      "alance": 15273,
      "dest": 6371,
      "Ġmaint": 14406,
      "Ġunit": 1941,
      "ĠTR": 6435,
      "project": 27645,
      "Application": 4589,
      "Ġtakes": 1934,
      "term": 29150,
      "Ġetc": 974,
      "uster": 20637,
      "Ġappear": 15725,
      "hs": 14372,
      "Ġhom": 15639,
      ",-": 16823,
      "Ġdifficult": 2809,
      "Ġcoming": 7836,
      "Open": 3980,
      "Ġsettings": 1835,
      "ĠWar": 6690,
      "ĠThen": 10328,
      "Ġautom": 8259,
      "ĠFoundation": 6313,
      "Ġquite": 11045,
      "Description": 7447,
      "Ġblog": 15839,
      "iqu": 13015,
      "PS": 4667,
      "110": 2798,
      "Json": 24522,
      "SSION": 12379,
      "ĠSch": 1937,
      "Ġeveryone": 2086,
      "Ġpretty": 21376,
      "Ġlonger": 6487,
      "Ġmenu": 3585,
      "Ġcurrently": 1275,
      "sec": 29190,
      "Ġrelationship": 1911,
      "ĠMap": 18082,
      "Ġparameters": 5569,
      "ILITY": 25168,
      "total": 25974,
      "Ġnames": 4701,
      "riend": 10999,
      "Ġeffort": 4486,
      "Ġactual": 3175,
      "Ġfields": 2259,
      "ters": 2994,
      "250": 3583,
      "Ġfix": 6088,
      "_model": 15906,
      "Ġcases": 2553,
      "CA": 2546,
      "My": 4992,
      "Interface": 17435,
      "ĠSE": 8376,
      "196": 4561,
      "]]": 17154,
      "alle": 10154,
      "ĠNational": 1689,
      "ĠArrayList": 15646,
      ".V": 12182,
      "ara": 5925,
      "asc": 19709,
      "Reader": 19975,
      "ĠÐ¿": 9982,
      "astic": 15405,
      "(()": 23761,
      "Cl": 8954,
      "Ġperformance": 673,
      "aily": 10283,
      ".net": 16600,
      "views": 30539,
      "ederal": 15283,
      ".body": 25664,
      "Ġhigher": 1567,
      "cr": 12116,
      "ĠGoogle": 2549,
      "Ġitself": 3426,
      "Auth": 16608,
      "Ġsignificant": 973,
      "Ġrespect": 1317,
      "Ġuna": 3204,
      ".apache": 24414,
      "Output": 9797,
      "Ġprogress": 982,
      "Ġmid": 5095,
      "ĠMicrosoft": 1439,
      "Ġresource": 2073,
      "Ġdim": 15730,
      ".load": 20010,
      "Ġdirection": 2036,
      "Ġadditional": 129,
      "Ġnumbers": 80,
      "Ġcompanies": 1669,
      "Ġsound": 2587,
      "username": 14257,
      "Ġstatement": 4267,
      "Ġalert": 7626,
      "Ġcontract": 804,
      "home": 13090,
      "_length": 18964,
      "ev": 21073,
      ".Ex": 17629,
      "ï¼ļ": 3013,
      "\";": 23401,
      "ĠHigh": 2341,
      "ĠPoint": 8197,
      "oph": 6634,
      "Ġlines": 3549,
      "\")ĊĊ": 12127,
      "ox": 10770,
      "application": 13436,
      "Ġ]Ċ": 20305,
      "180": 3335,
      "Ġsoon": 4388,
      "ctions": 304,
      "inger": 18369,
      "Ġjoin": 450,
      "ĠPe": 7777,
      "Ġë": 23687,
      "Ġlas": 5951,
      ".E": 10581,
      "css": 18372,
      "/or": 704,
      "ĠStart": 1879,
      "ĠTO": 4482,
      "Ġsubs": 10076,
      "conn": 8209,
      "components": 31923,
      "quare": 16104,
      "Function": 9893,
      ".index": 28026,
      "Ġfill": 2336,
      "ÄĻ": 16556,
      "Ġchoose": 2163,
      "how": 24405,
      "ĠAmerica": 2269,
      "------------": 22074,
      "ĠValue": 9600,
      "Ġoffice": 1120,
      "Ġtransform": 4863,
      "ĠArt": 4827,
      "Ġfn": 23456,
      "Ġimplements": 5674,
      "ango": 24386,
      "amily": 8840,
      "Ġhash": 13508,
      "missions": 8680,
      "EST": 17110,
      "gt": 3825,
      "Provider": 27224,
      "Ġflag": 12050,
      "Ġparticip": 8489,
      "den": 5952,
      "ĠReturns": 10295,
      "Ġnote": 2198,
      "Ã¼r": 4614,
      "pm": 2950,
      "Ġspecified": 291,
      "ĠEN": 12591,
      "ester": 11178,
      "olid": 8660,
      "Ġupon": 1609,
      "uz": 11270,
      "Ġvert": 13411,
      "Ġ\"$": 11886,
      "85": 2703,
      ".k": 10446,
      "Ġgroups": 1758,
      "github": 15509,
      "lang": 149,
      "Ġmut": 8973,
      "TO": 2488,
      "Ġve": 6430,
      "ĠPlease": 1309,
      "access": 20779,
      "Ġ{\"": 9887,
      "rea": 17761,
      "Ġrisk": 1346,
      ".send": 22082,
      "72": 9964,
      "Ġwoman": 7849,
      "Ġgets": 9185,
      "Ġign": 12772,
      "ĠId": 20180,
      "ONE": 22658,
      "ĠHar": 14888,
      "Ġincluded": 4743,
      "ĠAp": 14220,
      "igr": 17403,
      "Ġsem": 9249,
      "ĠBlack": 5539,
      "doc": 25037,
      "-up": 2535,
      "Ġcause": 287,
      "Ġvan": 1446,
      "_dict": 19543,
      "Ġfocus": 771,
      "IND": 11662,
      "Ġmultiple": 964,
      "ido": 8661,
      "Ġregard": 1827,
      "-M": 3430,
      "ourse": 17703,
      "Ġdeg": 26021,
      "Ġaddition": 1503,
      "Ġvarious": 642,
      "Ġreceive": 1224,
      "ÐµÐ½": 9802,
      "DF": 14665,
      "Ġincrease": 2330,
      "ĠOpen": 2257,
      "Ġcommit": 10504,
      "?Ċ": 3632,
      "atory": 3509,
      "ship": 2007,
      "Ġhtml": 517,
      "Ġleave": 1809,
      "Ġstrateg": 10890,
      "aven": 8568,
      "ĠConsole": 16741,
      "-n": 5926,
      "Ġbre": 11927,
      "Session": 30991,
      "iance": 8569,
      "Ġalign": 1958,
      "ĠWHERE": 21635,
      ".split": 24356,
      "Ġreading": 5141,
      "Ġnotice": 4423,
      "arter": 8027,
      "Ġlock": 8623,
      "Ġstandard": 1901,
      "etic": 5712,
      "ellow": 28233,
      "Ġpadding": 11144,
      "ĠHis": 8570,
      "Ġstates": 1657,
      "(P": 27736,
      "aa": 7082,
      "Ġinternal": 1254,
      "ean": 20356,
      "ĠPRO": 10420,
      "ĠKey": 4087,
      "Ġespecially": 2634,
      "ming": 16566,
      "Ġcross": 1684,
      "Ġnational": 780,
      "filter": 15364,
      "Ġscript": 2818,
      ".update": 31198,
      "_i": 11361,
      "Ġproblems": 1393,
      "istor": 27294,
      "Ġarch": 10227,
      "Ġwritten": 1188,
      "MENT": 5173,
      ".ch": 21668,
      "cape": 27859,
      "ĠMus": 15495,
      "_config": 28251,
      "ĠAPI": 1916,
      "Ġimages": 3423,
      "endl": 24182,
      ".In": 24180,
      "First": 6141,
      "Ġplatform": 1935,
      "Option": 13287,
      "ste": 2066,
      "Ġforce": 3161,
      "ĠDav": 31681,
      "(B": 26194,
      "RT": 5486,
      "ĠBase": 9779,
      "]['": 13618,
      "console": 8370,
      "ĠPy": 6764,
      "ds": 10565,
      "Ġprevent": 1794,
      "Ġ{'": 10452,
      "}</": 25114,
      "ĠService": 1222,
      "ĠSen": 13343,
      "ador": 8086,
      "Top": 5276,
      "Ġiter": 20835,
      "po": 8986,
      "IES": 5306,
      "JSON": 20283,
      "IE": 2179,
      "iant": 567,
      "ãĢģ": 949,
      "_map": 23893,
      "(context": 22581,
      "ĠHome": 1637,
      "ians": 5387,
      "GB": 10570,
      "63": 10353,
      "Ġliving": 1367,
      "Ġpattern": 7393,
      "(input": 14934,
      "icient": 3129,
      "999": 12425,
      "Core": 5431,
      "Ġentity": 4950,
      "Ġinteg": 18460,
      "Ġuseful": 8384,
      "Ġtool": 2132,
      "Ġok": 17358,
      "Ġfeed": 7020,
      "IX": 11634,
      "Ã©s": 1419,
      "ĠNews": 5855,
      "remove": 28114,
      "erry": 14908,
      "ares": 3593,
      "Do": 35,
      "Current": 1562,
      ".content": 25016,
      "ĠÑģ": 2076,
      "})": 527,
      "Ġpopular": 2042,
      "Ġstre": 29660,
      "Ġmethods": 1651,
      "Left": 12938,
      "cal": 11222,
      "Ġdir": 3975,
      "Ġallowed": 3598,
      "Ġimpact": 684,
      "62": 8494,
      ".config": 21486,
      "Ġelements": 2503,
      "Ġprote": 21950,
      "Ġtrain": 2451,
      "rs": 9119,
      "ĠRepublic": 16477,
      "ĠTask": 9926,
      "61": 12845,
      "aries": 7639,
      "Ġrelated": 554,
      "Ġvers": 8356,
      "Ġsil": 21120,
      "Ġcmd": 23955,
      "Ġtechnology": 709,
      ".width": 25215,
      "Float": 23950,
      "ĠUse": 1751,
      "Body": 19505,
      ".join": 17991,
      "ycle": 17205,
      "Ġmit": 666,
      "Ġscale": 2644,
      "Ġscore": 5769,
      "/v": 4616,
      "Ġstudent": 703,
      "UC": 7136,
      ".show": 10766,
      "Ġaverage": 3020,
      "imation": 31824,
      "chie": 16570,
      "ĠMarch": 10339,
      "category": 25151,
      "fin": 7756,
      "Ġcourt": 7208,
      "Ð²": 7832,
      "Server": 9578,
      "Ġcontainer": 6243,
      "-st": 3966,
      "Ġparts": 2302,
      "Ġdecision": 1920,
      "obs": 9287,
      "oub": 19856,
      "mitted": 14654,
      "Ġsaw": 6002,
      "Ġapproach": 1046,
      "ICE": 15203,
      "Ġsaying": 11238,
      "Ġanyone": 8654,
      "meta": 17697,
      "SD": 7924,
      "Ġsong": 8952,
      "Oper": 5856,
      "Ġchannel": 7404,
      "Ġchanged": 8795,
      "Ãª": 10177,
      "Ġfinally": 20791,
      "_number": 29931,
      "Please": 5179,
      "oring": 7068,
      "-re": 5440,
      "Ġkill": 18626,
      "Ġdrug": 2504,
      "window": 26709,
      "Ġconvert": 6702,
      "Ġways": 1873,
      "ĠFirst": 2848,
      "(__": 30195,
      "ĠWindows": 3386,
      "ees": 10182,
      "Ġmat": 6500,
      "Ġplus": 926,
      "anges": 18564,
      "/t": 12280,
      "lat": 13860,
      "aste": 5878,
      "Ġprofile": 5690,
      "Ġready": 275,
      "rote": 8098,
      "Ġsense": 394,
      "Gener": 3912,
      "ĠConfig": 22722,
      "omy": 11011,
      "ĠJune": 11698,
      "Ġlatest": 2888,
      "Ġregion": 1392,
      "Ġdeep": 1830,
      "ĠPark": 2709,
      "}`": 21451,
      "ĠFrom": 3280,
      "II": 20485,
      "Ġcv": 14126,
      "Ġreach": 2131,
      "Ġcounter": 6384,
      "ĠWork": 851,
      "ĠURL": 5191,
      "ĠUpdate": 11174,
      "close": 22335,
      "ados": 5568,
      "ferred": 22760,
      "Ġweeks": 615,
      "urg": 3238,
      "Ġdamage": 4082,
      "Ġlost": 7209,
      "ani": 9939,
      "Ġhimself": 16292,
      "Ġdog": 9488,
      ")]Ċ": 29810,
      "pir": 22155,
      "tt": 9313,
      "Ġpaper": 3856,
      "Ġstaff": 484,
      "ĠInput": 9923,
      "ĠFacebook": 6802,
      "Ġalloc": 30187,
      "ACE": 14467,
      "Ġthemselves": 4884,
      "ĠComponent": 17270,
      "Ġdriver": 2296,
      "ja": 3934,
      "Ġcategory": 6428,
      "alls": 15670,
      "ĠAction": 3457,
      "ĠGL": 19075,
      "istics": 10102,
      "Ġoil": 3660,
      "Ġstock": 3283,
      ">'": 27855,
      "Ġdead": 12069,
      "VAL": 23640,
      "Ġcharg": 16733,
      "Return": 152,
      "dom": 16726,
      "Ġrules": 2674,
      "Ġmodify": 4180,
      "ham": 10513,
      "atement": 23128,
      "ula": 11131,
      "=False": 22851,
      "RA": 4256,
      "Ġcontains": 4767,
      "74": 12534,
      "Ġstack": 4824,
      "mar": 13262,
      "Ġ{}Ċ": 23177,
      "Ass": 951,
      "ĠChina": 4678,
      "vey": 19150,
      "Ġplaying": 7770,
      ")/": 18608,
      "actor": 8102,
      "Ġbottom": 9624,
      "lier": 23677,
      "ĠNumber": 4100,
      "Ġcouple": 17531,
      "DC": 7685,
      "ĠSO": 9947,
      "gor": 22275,
      "Filter": 23162,
      "ĠOur": 412,
      "Ġctx": 19130,
      "Ġroad": 4424,
      "Version": 25574,
      "case": 27654,
      "urt": 11114,
      "avior": 26727,
      "ych": 19116,
      "ĠProduct": 3105,
      "Ġheld": 4448,
      "Ġincludes": 936,
      "Ġavoid": 1981,
      "ĠFin": 5594,
      "ĠMod": 9837,
      "Ġtab": 10071,
      "ano": 6635,
      "Ã±": 23120,
      "ipping": 20265,
      "-e": 8975,
      "Ġinsert": 14198,
      "target": 22915,
      "chan": 9378,
      "IME": 28449,
      "Ġmachine": 1836,
      "avy": 28899,
      "ĠNO": 9763,
      "ĠInter": 2377,
      "Ġoperation": 2221,
      "modal": 26626,
      "Tag": 22872,
      "]:": 30774,
      "Ġproduction": 1122,
      "Ġareas": 794,
      "Ġren": 7540,
      "_from": 20528,
      "nbsp": 11521,
      "Ġoperator": 7267,
      "men": 3503,
      "apped": 13201,
      "zen": 2207,
      ".save": 18157,
      "(response": 15139,
      "Ġcandid": 4459,
      "Ġconv": 9605,
      "ĠLib": 22405,
      "comp": 6502,
      "ura": 4265,
      "ï¿½": 7561,
      "ĠHere": 834,
      "Ġargument": 10229,
      "Ġestablish": 2766,
      "ography": 3333,
      "Ġsch": 4325,
      "Ġmovie": 10263,
      "Ġsec": 23133,
      "Ġactivity": 2474,
      "_all": 31738,
      "incip": 18245,
      "Ġprovides": 783,
      "Ġsys": 18085,
      "Ġwasn": 31860,
      "Ġuses": 2254,
      "ĠFunction": 4554,
      ".google": 22986,
      "ĠResult": 21678,
      "84": 11517,
      "ĠSy": 8339,
      "ĠCent": 15277,
      "aciÃ³n": 3437,
      "Ġlicense": 698,
      "ĠLong": 2449,
      "Ġaccom": 7564,
      "Ġability": 458,
      ".height": 29766,
      "Active": 2098,
      "ological": 5008,
      "oly": 18762,
      ")),": 20988,
      "Ġparameter": 7592,
      "ABILITY": 28382,
      ".service": 26751,
      "ĠGroup": 824,
      "ining": 9478,
      "Ġjud": 27407,
      "ims": 21916,
      "fix": 19146,
      "inder": 7931,
      "Ġfunctions": 1366,
      "Ġexperi": 10230,
      "ĠEm": 3701,
      "Ġrot": 14942,
      "ĠAS": 4252,
      "Ġchoice": 2795,
      "ĠPage": 3327,
      "QU": 16654,
      "ÂŃ": 3772,
      "words": 26750,
      "Ġflex": 4248,
      "protected": 30494,
      "ĠAny": 6891,
      "Ġcharacters": 91,
      "ĠJuly": 12918,
      "iler": 19158,
      "Card": 4970,
      "urance": 17014,
      "Ġrev": 13980,
      ".event": 30314,
      "aly": 5747,
      "130": 6705,
      "Ġwonder": 5253,
      "ĠPort": 9713,
      "Ġlegal": 2471,
      "role": 12433,
      "Ġten": 2679,
      "Ġgoes": 7351,
      "MP": 7352,
      "white": 21734,
      "Ġreference": 479,
      "Ġmis": 8082,
      "ĠProject": 2933,
      "icks": 21963,
      ">&": 4703,
      "CON": 20534,
      "Ġregular": 1946,
      "Storage": 19673,
      "Ġgoal": 927,
      "Ġtouch": 3197,
      ".widget": 28438,
      "Ġbuilt": 2588,
      "des": 229,
      "Part": 1228,
      "Ġworth": 3085,
      "hib": 23978,
      "game": 21240,
      "91": 9136,
      "192": 6525,
      "ĠÐ²": 1574,
      "acion": 14061,
      "ĠWhite": 8043,
      "(`": 18347,
      "81": 10967,
      "Ġnatural": 1494,
      "Ġcalcul": 16317,
      "ĠApril": 13044,
      "Ġassociated": 1948,
      "=[": 19784,
      "Ġstorage": 2193,
      "Ġbytes": 15292,
      "Ġtravel": 159,
      "Ġsou": 6821,
      "Ġpassed": 7122,
      "!=": 9219,
      ".open": 22936,
      "Ġgrid": 5796,
      "Ġbus": 10994,
      "Ġrecogn": 9426,
      "Ab": 5206,
      "Ġhon": 26412,
      "ĠCenter": 1039,
      "Ġprec": 25501,
      "build": 20163,
      "73": 11041,
      "HTML": 18341,
      "ĠSan": 2243,
      "Ġcountries": 1638,
      "aled": 21934,
      "kt": 3302,
      "Ġqual": 5420,
      "idad": 10805,
      "Next": 5704,
      ".a": 10559,
      "ĠPM": 2647,
      "erve": 4713,
      "iting": 2871,
      "ci": 10207,
      "=None": 24735,
      "gs": 7313,
      "Ġlogin": 11190,
      "atives": 5939,
      "']);Ċ": 27751,
      "Äħ": 28320,
      "Ġill": 8511,
      "IA": 3173,
      "children": 20825,
      "DO": 7224,
      "Ġlevels": 1477,
      "Ġlooks": 9674,
      "Ġnecessary": 376,
      "cell": 9288,
      "Entry": 17332,
      "Ġ'#": 22899,
      "Ġextrem": 25130,
      "Selector": 30570,
      "Ġplaceholder": 21391,
      "Load": 23200,
      "Ġreleased": 7958,
      "ORE": 16134,
      "ĠTV": 7206,
      "SET": 15409,
      "ĠDepartment": 1062,
      "Ġproperties": 3907,
      "Ġrespond": 2580,
      "Search": 9688,
      "ael": 17950,
      "Ġrequ": 11298,
      "ĠBook": 21143,
      "/Ċ": 10388,
      "Ġfinancial": 972,
      "icket": 21341,
      "_input": 14966,
      "Ġthreat": 7241,
      "(in": 25656,
      "Ã§Ã£o": 3364,
      "71": 9827,
      "Ġevidence": 1971,
      "));": 19943,
      "ĠBro": 14812,
      "Ġou": 1505,
      "Script": 8779,
      "dat": 25648,
      "Ġrule": 9016,
      "Ġstarting": 1997,
      "[index": 19332,
      "ae": 5893,
      "Ġcontrib": 9040,
      "session": 31361,
      "Ġrecently": 6627,
      "Ġreturned": 14466,
      ")))Ċ": 27187,
      "itions": 5200,
      "Ġseek": 3290,
      "Ġcommunic": 10535,
      "Ġ\".": 8451,
      "Ġusername": 12468,
      "DS": 9354,
      "Ġotherwise": 6349,
      "ĠGerman": 7991,
      "Adapter": 20518,
      "Ġsystems": 414,
      "Ġdrop": 9715,
      "83": 10131,
      "Ġstructure": 270,
      "encies": 3601,
      "anning": 15452,
      "ĠLink": 15457,
      "ĠResponse": 8888,
      "Å¼": 26040,
      "ĠDB": 8617,
      "android": 18230,
      "submit": 20713,
      "otion": 10204,
      "92": 11699,
      "(@": 26066,
      "82": 9118,
      "Ġdirectly": 264,
      "Ġ\"%": 30796,
      "ris": 8059,
      "AIL": 26330,
      "(k": 829,
      "bon": 14801,
      "pite": 30874,
      "___": 19586,
      "Max": 15758,
      "Ġerrors": 293,
      "ĠWhile": 1780,
      "Ġarguments": 10679,
      "Ġensure": 372,
      "Right": 20331,
      "-based": 748,
      "Web": 12666,
      "Ġ-=": 28338,
      "Ġintrodu": 317,
      "ĠInst": 18039,
      "ĠWash": 20314,
      "ordin": 8611,
      "join": 20915,
      "Database": 13950,
      "Ġgrad": 22827,
      "Ġusually": 6547,
      "ITE": 16708,
      "ĠGo": 3568,
      "Ġip": 22746,
      "Ġist": 1597,
      "Ġserious": 9381,
      "Ġcustomer": 610,
      "odo": 19865,
      "cor": 11515,
      "Ġdoor": 4825,
      "Ġplant": 2255,
      "Ġbegan": 4002,
      "Ġdistance": 3165,
      "Ġchance": 2167,
      "Ġord": 16957,
      "Ġprotect": 1831,
      "ĠNode": 5140,
      "ening": 505,
      "Ñĩ": 11088,
      "Ġroute": 6406,
      "ĠSchool": 876,
      "hi": 9618,
      "After": 11253,
      "licit": 14316,
      "Ġcontr": 4627,
      "Ġprimary": 953,
      "AA": 3690,
      ".WriteLine": 24062,
      "utils": 25304,
      "Ġbi": 3017,
      "Red": 9861,
      "Ġleaders": 2112,
      "unities": 3523,
      "Ġgun": 13108,
      "ĠDev": 4011,
      "Ġcomments": 303,
      "amount": 19957,
      "Range": 18876,
      "Ġupdated": 2653,
      "ĠMo": 9913,
      "Ġinform": 3436,
      "ala": 6259,
      "Access": 2543,
      "Ġhab": 18692,
      "Ġcreat": 17896,
      "ĠJanuary": 9245,
      "ĠDay": 2201,
      "document": 21323,
      "menu": 21672,
      "ĠOver": 3635,
      "bb": 20409,
      ".title": 14976,
      "Ġled": 2113,
      "uri": 6330,
      "gl": 9404,
      "Ġbank": 4966,
      "ayment": 10386,
      "MD": 5494,
      "Ġsample": 6236,
      "Ġhands": 1925,
      "ĠVersion": 31433,
      "Ġoffers": 578,
      "Ġshape": 2705,
      "Ġsleep": 8152,
      "Ġsold": 20096,
      "ota": 12304,
      "Am": 9291,
      "Ġsafe": 776,
      "Store": 11348,
      "Ġshared": 2776,
      "Ġpriv": 8851,
      "Ġsens": 5445,
      "Ġremember": 8514,
      "element": 17549,
      "Ġshoot": 16011,
      "cout": 20176,
      "Ġenv": 13477,
      "_label": 28458,
      "run": 19607,
      "Ġscene": 4343,
      "(array": 28474,
      "_title": 24654,
      "agon": 13915,
      "aby": 26756,
      "Ġbecame": 6109,
      "Ġpark": 4458,
      "ĠCode": 2892,
      "upload": 29678,
      "riday": 6630,
      "ĠSeptember": 9631,
      "Fe": 12840,
      "Ġsen": 23522,
      "cing": 20986,
      "FL": 8710,
      "Col": 15873,
      "uts": 7922,
      "inn": 4871,
      "Ġimplied": 28309,
      "aling": 16125,
      "Ġyourself": 3521,
      "Ġaud": 14518,
      ".)": 2050,
      "Ġwrote": 24817,
      "003": 19583,
      "NG": 13869,
      "Ġequal": 1119,
      "ĠRequest": 13531,
      "Ġserial": 13447,
      "Ġallows": 1662,
      "Ġmiddle": 7353,
      "195": 5500,
      "94": 12242,
      "reading": 16402,
      "Ġescort": 27286,
      "ĠAugust": 8976,
      "Ġquickly": 456,
      "ropri": 28411,
      "ho": 8655,
      "Ġcop": 13496,
      "ĠBig": 8035,
      "Ġvs": 10804,
      ".Value": 20196,
      "Ġactions": 1924,
      "Ġproper": 2082,
      "Ġinn": 14439,
      "Ġobjects": 3217,
      "Ġmatrix": 6539,
      "Ġones": 4656,
      "Ġgreen": 5103,
      "Ġpaint": 15840,
      "ools": 28479,
      "olt": 14284,
      ".api": 18100,
      "Ġune": 1332,
      "izont": 25905,
      "Ġdesigned": 1081,
      "_val": 17193,
      "avi": 21528,
      "iring": 7047,
      "tab": 21219,
      "Ġlayer": 6450,
      "Ġviews": 4531,
      "ĠON": 9750,
      "160": 5519,
      "np": 24726,
      "Ġcore": 2085,
      "Main": 22206,
      "Ġexpert": 1733,
      "utter": 10648,
      "IAL": 6785,
      "ails": 23487,
      "ĠKing": 9418,
      "ĠMet": 6608,
      "ora": 4236,
      "Ġir": 20628,
      "Min": 9155,
      "Ġdirectory": 3628,
      "-S": 1549,
      "Ġelection": 26560,
      "cm": 16375,
      "Values": 14952,
      "Ġ\"Ċ": 25275,
      "column": 22585,
      "93": 10768,
      "Ġbeautiful": 2666,
      "Ġsecret": 7144,
      "(event": 29225,
      "Ġchat": 2925,
      "ums": 6837,
      "Ġorigin": 1111,
      "Ġeffects": 2802,
      "Ġmanagement": 400,
      "illa": 10236,
      "tk": 17119,
      "Ġsetting": 742,
      "ĠCour": 25317,
      "Ġmassage": 25828,
      "Ġhappy": 2476,
      "Ġfinish": 5602,
      "Ġcamera": 7851,
      "ĠVer": 1272,
      "ĠHer": 4532,
      "(Q": 27461,
      "cons": 15770,
      "ita": 3986,
      "Ġ'.": 27467,
      "{}": 23534,
      "Ġstuff": 15077,
      "194": 6368,
      "Ġ:Ċ": 13134,
      "ĠAR": 4915,
      "Task": 9759,
      "hidden": 20961,
      "eros": 18501,
      "IGN": 31929,
      "ĠHealth": 277,
      "Enter": 7031,
      "'>": 16720,
      "ĠTwitter": 8071,
      "ĠCounty": 2615,
      "Ġhy": 4734,
      "fit": 8924,
      "Ġmilitary": 2434,
      "Ġsale": 19955,
      "required": 9436,
      "non": 17414,
      "hold": 21289,
      "rim": 6119,
      "-old": 14168,
      "ĠDown": 22831,
      "Ġmention": 516,
      "contact": 24439,
      "Ġtown": 4640,
      "Ġsolution": 2128,
      "uate": 5114,
      "elling": 5595,
      "]->": 29484,
      "otes": 7394,
      "ental": 933,
      "omen": 15838,
      "ospital": 7372,
      "ĠSup": 28273,
      "Ġslow": 8005,
      "Ġblue": 4547,
      "ago": 23399,
      "Ġlives": 856,
      ".un": 21899,
      "inst": 8513,
      "enge": 9540,
      "Ġcustomers": 862,
      "Ġcast": 10455,
      "udget": 14319,
      "ï¼ģ": 6072,
      "icens": 1677,
      "Ġdetermin": 12096,
      "Ġdark": 6932,
      "si": 10553,
      "thern": 23450,
      "ĠJapan": 5417,
      "/w": 260,
      "PU": 15492,
      "ĠEast": 3711,
      "Ġpackage": 382,
      "Ġnor": 15275,
      "Ġapi": 17736,
      "bot": 4092,
      "ulate": 8115,
      "Ġclub": 10423,
      "Ġloop": 6703,
      "ione": 10269,
      "Initial": 19057,
      "Ġplayed": 5807,
      "register": 30134,
      "rought": 26211,
      "_max": 21848,
      "acement": 29112,
      "match": 18532,
      "AST": 14895,
      "Ġexisting": 1880,
      "Ġcomplex": 762,
      "DA": 8499,
      "mo": 7586,
      "ito": 5550,
      "Ġanalysis": 1124,
      "Ġdeliver": 1042,
      "Ãł": 5092,
      "ĠEnglish": 2175,
      "Ġcomputer": 1194,
      "Ġpas": 4442,
      "Ġmobile": 2884,
      "Ġowner": 9434,
      "Ġattr": 5233,
      "wd": 27843,
      ".time": 31388,
      "Ġtreatment": 765,
      "ĠAc": 3764,
      "impl": 21131,
      "more": 20879,
      "pass": 6787,
      "Ġha": 7893,
      ".from": 22064,
      "Ġleading": 660,
      "(error": 17368,
      "atar": 15632,
      "aders": 16638,
      "Ġzu": 1006,
      "Ġflow": 3215,
      "Target": 15133,
      "Ġinvolved": 2171,
      "Ġio": 18053,
      "parse": 25402,
      "hest": 19260,
      ".int": 30044,
      "asy": 24482,
      "Sp": 9174,
      "Ġshift": 1162,
      "NT": 7927,
      "Ġtf": 20336,
      ".web": 26366,
      "CS": 4502,
      "Ġeyes": 5236,
      "125": 7164,
      "105": 10618,
      "Ġnice": 512,
      "Ġfloor": 5928,
      "Ġredirect": 22329,
      "ĠUK": 3832,
      "(['": 19677,
      "Ġwish": 12454,
      "Ġcapt": 13799,
      "ĠIO": 31050,
      "Ġstage": 5063,
      "igen": 1781,
      "ĠSH": 7625,
      "Delete": 23601,
      "ells": 7503,
      "Ġsolid": 3925,
      "Ġmeeting": 2358,
      "Ġworked": 2473,
      "Ġeditor": 15459,
      "Ð¼": 7062,
      ".Id": 26388,
      "eff": 19275,
      "cha": 14737,
      "ipped": 18164,
      "Ġdict": 22574,
      "ĠRun": 11162,
      "Ġang": 9973,
      "xml": 27832,
      "Ġmedical": 365,
      "_token": 17833,
      "connect": 21795,
      "Ġhour": 641,
      "Ġcontroller": 14151,
      "_message": 16520,
      "Gr": 6510,
      "Ġbooks": 6820,
      "Ġspeak": 3947,
      "aming": 19298,
      "Ġmount": 19297,
      "Record": 16334,
      "Ġfelt": 9654,
      "PR": 2916,
      "Ġmodern": 1475,
      "Collection": 21959,
      "CD": 3581,
      "ĠLo": 11044,
      "Ġseconds": 8589,
      "ibly": 21155,
      ".equals": 27380,
      "Ġinternational": 1770,
      "ooth": 25765,
      "iate": 7005,
      "ĠBit": 24838,
      "ivo": 7746,
      "rd": 2123,
      "Ġcache": 8373,
      "Ġroll": 7970,
      "108": 11035,
      "RED": 21802,
      "Ġsetup": 5683,
      "models": 26624,
      "Ġconsidered": 1168,
      "ĠRel": 5408,
      "Ġgrowth": 602,
      "Ġmix": 4422,
      "ĠWashington": 2265,
      "Ġplt": 9825,
      "ĠIM": 15928,
      "Ġturned": 17071,
      "ĠWed": 26827,
      "(url": 25741,
      "Ġletter": 2548,
      "Async": 23481,
      "ĠOctober": 8450,
      "_line": 30149,
      "Ġattention": 1442,
      "Ġcollect": 4081,
      "ĠHash": 29825,
      "Tree": 13000,
      "Ġsituation": 4027,
      "ette": 12525,
      "IVE": 15050,
      "Ġvon": 769,
      ".target": 27747,
      "Ġknowledge": 498,
      "Ġdrive": 1338,
      ".post": 31755,
      "Ġblood": 4807,
      "Ġcit": 17450,
      "Ġconfiguration": 2967,
      "Ġphoto": 14182,
      "Ġgave": 18648,
      "Ġshot": 13594,
      "ĠAir": 6390,
      "Ġmother": 13049,
      "price": 26467,
      "Ġmorning": 10575,
      "Ġtrade": 3248,
      "Ġdesc": 21757,
      "Ġparents": 1654,
      "ted": 25644,
      "wer": 3774,
      "Ġæ": 30513,
      "Ġsy": 26241,
      "ĠKe": 9171,
      "ancy": 7541,
      "Ġpiece": 9141,
      "ifornia": 22354,
      "ran": 13187,
      "iding": 7323,
      "comes": 12639,
      "/lic": 25599,
      "El": 5104,
      "Long": 4643,
      "Ġprofessional": 403,
      "va": 6245,
      "Ġcompletely": 8809,
      "Ġpractice": 880,
      "002": 24162,
      "Ġselection": 3636,
      "Rem": 300,
      "ini": 5696,
      "Ġcam": 14362,
      "Ġsites": 2519,
      "pa": 8798,
      "ÑģÑĤ": 17949,
      "_KEY": 10655,
      "ĠButton": 17177,
      "ĠFriday": 2696,
      "Ġreader": 16450,
      "Ġmessages": 4507,
      "Ke": 11934,
      "Ġnov": 16287,
      "HP": 9703,
      "align": 29755,
      "arily": 19591,
      "_with": 24615,
      "Ġdas": 1786,
      "Ġheard": 6729,
      "atomic": 27911,
      "Ġgold": 4629,
      "Ġfair": 3855,
      "Ġsales": 1196,
      "save": 29711,
      "Ġmeasure": 5419,
      "ĠTable": 10039,
      "Ġdecided": 16826,
      "Ġopportunity": 307,
      "Te": 2507,
      "ICENSE": 27802,
      "ki": 9111,
      "ĠUN": 7524,
      "Ġcontain": 5936,
      "Ġmanager": 2932,
      "Ġpain": 6188,
      "ĠFire": 6204,
      "Ġplans": 570,
      "lay": 26809,
      "ĠDecember": 7679,
      "Ġinflu": 16265,
      "Ãº": 11717,
      "azing": 20653,
      "wood": 6383,
      "Ġloaded": 21737,
      "Ġgrand": 6345,
      "/f": 4487,
      "imp": 16778,
      "_U": 24676,
      "127": 26987,
      "STR": 16777,
      "âĢ¢": 363,
      "Ġcredit": 3200,
      "orge": 3985,
      "Ġdifference": 1177,
      "ĠPC": 2359,
      "Ġpub": 18408,
      "unday": 27937,
      ".max": 19579,
      "Ġtried": 14719,
      "send": 9620,
      "Ġreports": 1131,
      "Ġadult": 4026,
      "äº": 31716,
      "Ġconsist": 12889,
      "ĠStreet": 8622,
      "ĠProgram": 946,
      "SQL": 7124,
      "Matrix": 9998,
      "-A": 3784,
      "Ġwhose": 7706,
      "Ġrelig": 29729,
      "ĠSex": 22737,
      "Ġgives": 8946,
      "none": 22740,
      ".message": 25747,
      "(G": 29802,
      "-right": 19994,
      "ĠNovember": 6990,
      "ellig": 23363,
      "360": 8350,
      "Äĥ": 8768,
      "overn": 26971,
      "Ġeasily": 6322,
      "Ġideas": 404,
      "104": 14645,
      "ĠÐ½": 20341,
      "lying": 16337,
      "elle": 2778,
      "Can": 9007,
      "Ð¾Ð²": 4118,
      "Ġpair": 9594,
      "Ġsplit": 13868,
      "140": 5366,
      "drop": 27915,
      "ona": 9652,
      "Ġcapital": 4134,
      "Ġhear": 2618,
      "Ġexists": 10690,
      "emo": 25389,
      "Run": 12740,
      "oi": 10161,
      "Ġparser": 10665,
      "ĠMethod": 7305,
      "Ġeducation": 477,
      "Ġlibrary": 2637,
      "Ġcalls": 2846,
      "here": 7259,
      "Rel": 4015,
      "Ġbrand": 2909,
      "background": 15541,
      "ga": 8659,
      "_params": 22715,
      "Category": 10414,
      "103": 20501,
      "ĠIndia": 4613,
      "Ġing": 6665,
      "Ġpet": 2649,
      "FC": 13975,
      "ĠAnt": 6335,
      "Ext": 7377,
      "Ġcharge": 3536,
      "ened": 20228,
      "grad": 26779,
      "EO": 2284,
      "Ġdepend": 4112,
      "frame": 12590,
      "Ġdf": 12250,
      "Ġhuge": 8802,
      "ĠPART": 28167,
      "eds": 9253,
      "ĠAM": 1963,
      "Ġbasic": 269,
      "ĠLet": 1711,
      "lich": 1864,
      "Ġarm": 10850,
      "Ġstar": 8125,
      "Ġfederal": 1422,
      "Work": 990,
      "Ġcarry": 4659,
      "ĠIsrael": 9252,
      "Ġsaved": 14876,
      "Ġsyn": 12515,
      "Ġconstant": 5640,
      "Ġpositive": 607,
      "Ġconduct": 2792,
      "Ġskin": 6537,
      "Ġearlier": 5509,
      "Ġlayout": 5715,
      "ĠIP": 5290,
      "OUR": 18092,
      "Ġtim": 15053,
      "stylesheet": 27386,
      "ĠCard": 2339,
      "Ġtemper": 24631,
      "ĠDavid": 16244,
      ".dart": 28630,
      "Ġwants": 8352,
      "Ġpicture": 10413,
      "Ġvideos": 7174,
      "ĠComm": 9873,
      "isions": 16204,
      "-content": 31823,
      "-de": 9422,
      "Ġprem": 18675,
      "Ġcomponents": 2031,
      "Ġthroughout": 935,
      "Ġpull": 9204,
      "Ġpages": 7891,
      "ente": 2467,
      "respond": 24045,
      "Ġgas": 3135,
      "Ġedge": 6706,
      "Ġbound": 12461,
      "ACT": 15634,
      "Ġcreating": 1164,
      "ĠCH": 6870,
      "Ġnullptr": 31828,
      "Br": 16725,
      ".co": 20384,
      "Ġlearning": 657,
      "Ġpatients": 381,
      "Ġkids": 15079,
      "Ġcomfort": 4349,
      "Ġshown": 6885,
      "ĠBack": 10545,
      "ella": 8767,
      "Ġlat": 9393,
      "Ġdispatch": 15959,
      "Ġclasses": 3030,
      ".begin": 25195,
      "Ġsuccessful": 839,
      "ban": 15351,
      "Ġobtain": 2155,
      "ĠSl": 17615,
      "Ġlack": 5979,
      "(size": 26280,
      "Ġnone": 8132,
      "sort": 14502,
      "nap": 24577,
      "pet": 4141,
      "bin": 11713,
      "700": 495,
      "ĠCanada": 4350,
      "They": 17756,
      "Ġdans": 1230,
      "ĠMat": 8330,
      "Ġhair": 8790,
      "Ġ'',Ċ": 27375,
      "Ġcu": 15040,
      "Ġlaws": 1658,
      "ped": 20864,
      "Ġpow": 27381,
      "Ġknew": 10729,
      "ĠMag": 15695,
      "idents": 15971,
      "190": 9532,
      "Ġwide": 1216,
      "ĠAuthor": 31609,
      "Ġjobs": 1246,
      "Ġmath": 5698,
      "Ġscope": 2850,
      "Ġkeys": 9963,
      "Ġexactly": 8367,
      "ĠPaul": 9029,
      "mas": 11077,
      "(len": 31554,
      "fd": 14105,
      "oman": 19598,
      "ĠTop": 2965,
      "Ġvote": 17850,
      "Ġmask": 10287,
      "Ġtheme": 3489,
      "Ġprops": 27369,
      "Ġfine": 3109,
      "Ġwriter": 4686,
      "car": 10602,
      "Ġaltern": 13673,
      "Ġcopyright": 29855,
      "Ġdestroy": 19170,
      "Ġgenerate": 2287,
      "pped": 31033,
      "âĢĻd": 29849,
      "make": 23318,
      "ĠShow": 9945,
      "Ġbrowser": 5658,
      "Ġfavorite": 3965,
      "Ġcareer": 503,
      "Ġhappened": 23983,
      "Ġrecommend": 2930,
      "Ġliter": 19161,
      ".filter": 30112,
      "ĠÂ£": 7710,
      "Phone": 10803,
      "oms": 9184,
      "Ġnamed": 2623,
      "ipo": 12374,
      "ĠOther": 3708,
      "Ġpanel": 7037,
      "Ġrock": 6434,
      "Scale": 25103,
      "Ð´": 9843,
      "Ġtrust": 2001,
      "front": 13158,
      "Ar": 5462,
      "Net": 7067,
      "Ġeconomic": 1776,
      "footer": 28602,
      "Ġrace": 1050,
      "(node": 25122,
      "ĠOption": 11457,
      "split": 28144,
      "Ġphysical": 360,
      "Ġremoved": 12749,
      ".http": 24706,
      "Ġlooked": 22673,
      "';": 17548,
      "ding": 16355,
      "gest": 7225,
      "aturday": 25071,
      "Price": 24101,
      "Ġdro": 13395,
      "Ġtowards": 2345,
      "Ġuns": 1108,
      "ĠCL": 9617,
      "Ġrows": 13082,
      "Ġdefine": 4019,
      ".replace": 28135,
      "Ġfather": 25093,
      "ĠDesign": 2245,
      "assign": 27056,
      "mut": 14024,
      "Device": 25890,
      "'))Ċ": 21978,
      "ometry": 9584,
      "Ġhistor": 22875,
      "ĠParam": 14509,
      "Ġnature": 1734,
      "Ġnation": 1968,
      "ih": 12842,
      "Ġdiscover": 3679,
      "sem": 27231,
      "Handle": 11060,
      "ĠTechn": 1256,
      "Ġwall": 11290,
      "Ġexam": 6574,
      ".draw": 27722,
      "opping": 22262,
      "Ġnearly": 6217,
      "Ġcool": 8231,
      "RES": 23321,
      "Ġhandler": 24100,
      "ĠMonday": 3094,
      "Ġsun": 4259,
      "ously": 12675,
      "vest": 16504,
      "Display": 17651,
      "(y": 26435,
      "atically": 24327,
      "Ġpredict": 8036,
      "ying": 14195,
      "Ġsometimes": 8158,
      "\"]Ċ": 19327,
      "Ġdrink": 16907,
      "ifications": 475,
      ".insert": 22204,
      "Ġtests": 2947,
      "Ġattribute": 15801,
      "ĠNote": 11570,
      "Ġmyself": 10798,
      "arts": 16795,
      "Now": 3692,
      "Ġinteresting": 3793,
      "Ġpopulation": 1710,
      "ĠCalifornia": 1203,
      "å¹": 18272,
      "Ġgreater": 3342,
      "Ġcosts": 2660,
      "Ġlaunch": 8443,
      "ker": 4356,
      "band": 11364,
      "ĠPlay": 15191,
      "Ġband": 11133,
      ".shape": 21716,
      "article": 30367,
      "Ġwer": 3484,
      "Ã¡s": 12346,
      "usr": 12423,
      "BA": 4361,
      "ican": 11383,
      "ett": 6818,
      "Ġimmediately": 3491,
      "zer": 12327,
      "Ġfigure": 4694,
      "oes": 14120,
      "eller": 3169,
      "ĠSign": 3815,
      ".db": 18410,
      "Ġrank": 6776,
      "Ġprojects": 772,
      "API": 9108,
      "ĠLine": 5093,
      "Port": 10669,
      "Ġpoll": 5863,
      "Ġgiving": 3863,
      "idence": 20717,
      "Ġplot": 8519,
      "icial": 24476,
      "Ġwarrant": 23051,
      "ĠDouble": 21896,
      "Ġbillion": 7000,
      "Ġequipment": 625,
      "EE": 14797,
      "Ġple": 14469,
      "iation": 6139,
      "Ġheaders": 13807,
      "Ġproced": 16452,
      "Ġpa": 11421,
      "ĠBest": 1921,
      ".\\": 3031,
      "mploy": 31041,
      "Ġraw": 12703,
      "_block": 20412,
      "\"},Ċ": 31126,
      "112": 13683,
      "Ġbrought": 8475,
      "CP": 4123,
      "eps": 13595,
      "Op": 2298,
      "Ġinterview": 2443,
      "\"\"\"Ċ": 26870,
      "Ġpartial": 19949,
      "Ġaria": 26876,
      "bing": 12916,
      "Book": 30924,
      "ĠPat": 13781,
      "Users": 19025,
      "plus": 17535,
      "193": 9329,
      "ĠDirect": 2242,
      "venue": 23227,
      "ĠCall": 4605,
      "Ġremain": 3878,
      "Ġanti": 6569,
      "ĠLondon": 8402,
      "Ġsafety": 687,
      "POSE": 23261,
      "oles": 11303,
      "controller": 30908,
      "Byte": 29341,
      "ĠCourt": 13878,
      "ĠPhil": 17768,
      "ena": 6586,
      "coin": 28229,
      "Ġbatch": 9025,
      "Ġbeginning": 6338,
      "Ġzero": 8871,
      "ĠConvert": 16675,
      "Ġterr": 11194,
      "Ġpaid": 817,
      "Ġincreased": 3208,
      "catch": 24525,
      "-size": 9646,
      "115": 8883,
      "activity": 23016,
      "Ġqueue": 10284,
      "ĠInternational": 3461,
      "ĠfÃ¼r": 789,
      "Ġscient": 29295,
      "axis": 9080,
      "Ġappropri": 16427,
      "Success": 22187,
      ":\\": 7769,
      "Ġmaximum": 3919,
      "arks": 12092,
      "Ġbirth": 7745,
      "Ġmaybe": 10926,
      ".py": 8533,
      "files": 28652,
      "Ġlimited": 1204,
      "look": 23706,
      "plies": 12312,
      "Ġmovement": 3505,
      "'].": 26845,
      "Ġbroad": 3758,
      "ĠBE": 6232,
      "ĠEvery": 6373,
      "Admin": 4133,
      "Ġfans": 10696,
      "pared": 29402,
      "ĊĠĠĠĠĊ": 17890,
      "Ġforeign": 7432,
      "Ġpan": 13430,
      "Ġtour": 5520,
      "ĠOrder": 8312,
      "Ġmoving": 4548,
      "Ġauf": 1179,
      "Call": 5699,
      "cb": 27860,
      "ÅŁ": 29957,
      "Ġfully": 285,
      "Ġannounced": 16715,
      "Ġagreed": 12447,
      "rie": 2866,
      "Ġearn": 284,
      ".array": 23724,
      "(text": 20278,
      "Ġmaterials": 1123,
      "Ġunless": 8178,
      "LOG": 19760,
      "Ġsexual": 1070,
      "-time": 604,
      "Ġcoach": 8666,
      "Ġsupported": 2831,
      "Ġphotos": 5865,
      ")]": 31349,
      "rier": 8928,
      "Ġdialog": 25587,
      "aver": 6938,
      "ige": 1352,
      "_min": 24302,
      "Ġpressure": 2773,
      "Ġteams": 708,
      "Sign": 5590,
      "begin": 11165,
      "rian": 15771,
      "LS": 1138,
      "Ġimprove": 367,
      "ĠSunday": 11835,
      "Ġdefinition": 9104,
      "iger": 3312,
      "Ġthinking": 2337,
      "Template": 24298,
      "-F": 2067,
      "Ġemerg": 16722,
      "ĠUSA": 4227,
      "ĠAlso": 8764,
      "rev": 10304,
      "Ġenable": 2208,
      "ĠCO": 3614,
      "Ġconcept": 2620,
      ")-": 6768,
      "ĠâĢ¢": 31949,
      "Ġsets": 3371,
      "Ġmeaning": 5067,
      "emon": 1681,
      "ĠCons": 10727,
      "eder": 8789,
      "anned": 13045,
      "icensed": 5920,
      "ĠSuper": 12255,
      "Ġdaily": 1172,
      "Ġmulti": 1939,
      "_mode": 16523,
      "ĠPromise": 16086,
      "Ġstrict": 8109,
      "jo": 4788,
      "Only": 17828,
      ">{": 13598,
      "Ġvehicle": 2448,
      "ĠPlayer": 18150,
      "106": 17227,
      "ĠDel": 9694,
      "Ġpool": 4150,
      "900": 8241,
      "Ġ\");Ċ": 21508,
      "Local": 5949,
      ".\");Ċ": 18884,
      "Ġorganization": 757,
      "render": 21771,
      "ĠApplication": 4244,
      "Ġsummer": 5506,
      "NA": 3904,
      "Ġrap": 15284,
      "Ġsurface": 4943,
      "Ġvariables": 6320,
      "(message": 27268,
      "Ð°Ð½": 11920,
      "Ġworkers": 3511,
      "vm": 22219,
      "Co": 5038,
      "Ġmaster": 2617,
      "Ġ\"\",": 28020,
      "Ġstories": 1560,
      "inese": 24088,
      "BS": 5052,
      "ĠCommand": 13081,
      "kg": 11971,
      ".style": 19070,
      "Ġsteps": 2729,
      "ĠBen": 9699,
      "404": 11452,
      "ĠPerson": 5214,
      "Ġofficials": 9890,
      "Ġskills": 126,
      "Ġbuilder": 25595,
      "Ġgar": 17653,
      "Account": 7595,
      "'])Ċ": 12927,
      "ĠAT": 7104,
      "nn": 24437,
      "Ġeffective": 991,
      "Ġtools": 761,
      "Ġdigital": 1368,
      "191": 9117,
      "Double": 27066,
      "ĠFind": 12485,
      "RC": 5372,
      "Ġinline": 27530,
      "/r": 14194,
      "Ġintent": 8677,
      "Ġrequests": 2126,
      "Ġdebug": 11321,
      "Ġspent": 9864,
      "ÅĽ": 29437,
      "Ġprincip": 10160,
      "cludes": 351,
      ".use": 28951,
      "media": 24941,
      "ĠFebruary": 17122,
      "ĠMac": 8182,
      "Ġmissing": 6120,
      "Ġwife": 19999,
      "Ġtalking": 10921,
      "ĠMake": 3763,
      "Ġcart": 10343,
      "Ġlocated": 1484,
      "Enc": 10442,
      "-a": 4832,
      "chron": 27508,
      "Ġcards": 12090,
      "Ġguy": 24819,
      "Ġpers": 13616,
      "ĠYes": 3198,
      "ĠAng": 7629,
      "olar": 13617,
      "ĠEven": 12681,
      "ĠPower": 2874,
      "ĠGold": 6340,
      "Process": 7128,
      "Ġrecords": 1090,
      "Ġkilled": 16275,
      "Ġpurpose": 2152,
      "ÃŃa": 9338,
      "Ġexerc": 22188,
      "WS": 6411,
      "/L": 4896,
      "Ġsin": 9777,
      "ĠdÃ©": 2847,
      "roke": 29010,
      "Sl": 27983,
      "ugh": 10179,
      "ears": 28982,
      "Ġpointer": 22606,
      "covery": 19624,
      "itchen": 27474,
      "ulations": 12405,
      "vention": 14503,
      "Ġrequires": 1165,
      "ĠOper": 7158,
      "ME": 2823,
      "Ġnorm": 7350,
      "IRE": 15672,
      "exas": 22183,
      "Ġprograms": 506,
      "Ġweak": 17438,
      "uing": 1855,
      "Ġmil": 16658,
      "Ġfirm": 1767,
      "apse": 29226,
      "atisf": 21332,
      "Ġdemand": 2684,
      "Ġdescribed": 5350,
      "Ġplaces": 2381,
      "Ġalone": 8315,
      "Ġexport": 8857,
      "ĠMax": 10226,
      "Ġactivities": 639,
      "gener": 27967,
      "Ġma": 3190,
      "Ġexpression": 2018,
      "_content": 23148,
      "ĠMost": 6307,
      "Ġtesting": 1350,
      "EC": 7543,
      "Ġadjust": 3008,
      "Ġagree": 9142,
      "ĠLaw": 5192,
      ".Y": 17702,
      "Ġpod": 20026,
      "Ġdescribe": 5612,
      "ĠEuropean": 4925,
      "-sh": 9838,
      "ĠPURPOSE": 17365,
      "ORY": 23624,
      "Ġconvers": 7182,
      "ĠAv": 10162,
      "?\"": 12724,
      "chen": 3964,
      "ima": 7015,
      "Document": 4307,
      "Ġoperations": 971,
      "win": 15465,
      "/h": 3497,
      "ĠSC": 4981,
      "NAME": 3246,
      "Ġdirector": 6329,
      "Ġyield": 14749,
      "Ġfeet": 4071,
      "ĠSearch": 4782,
      "ĠIl": 9361,
      "Ġrestaur": 26683,
      "duc": 5075,
      "Ġinteger": 8322,
      "107": 21250,
      "Ġhighly": 800,
      "ï¼ī": 9815,
      "Ġoptim": 7165,
      "Queue": 31223,
      "itation": 5020,
      "Ġtransport": 3894,
      "ission": 10192,
      "fill": 16712,
      "usion": 4696,
      "-th": 18250,
      "Ġessential": 920,
      "Ġbenefits": 163,
      "iki": 23843,
      "Ġgirls": 12215,
      "iced": 25082,
      "Ġsocket": 13777,
      "Ġprices": 7466,
      "ĠFre": 3548,
      "Ġsat": 25091,
      "Ġwood": 6723,
      "ĠAdmin": 6926,
      "dk": 29549,
      "Ġreset": 22617,
      "Ġforms": 2323,
      "ĠÐ¸": 1185,
      "ĠTuesday": 14085,
      "109": 6854,
      "_train": 20330,
      "Total": 15001,
      "construct": 31078,
      "ilies": 31019,
      "ÐµÑĢ": 6739,
      "Ġinstruction": 2565,
      "010": 25876,
      "Ġinternet": 3651,
      "ady": 29153,
      "ĠJack": 12362,
      "Ġrect": 23822,
      "[-": 29202,
      "ĠLeg": 18887,
      "Ġdevices": 1989,
      "OC": 8487,
      "oration": 9495,
      "ertain": 27656,
      "Ġguard": 20044,
      ".layout": 23146,
      "ĠOk": 12914,
      "Home": 5501,
      "Ġdelay": 11331,
      "Ġpurchase": 5297,
      "dc": 25228,
      "Ġaren": 15685,
      ".run": 25342,
      "(model": 23772,
      "lik": 21706,
      "ĠArg": 30515,
      "Ġfish": 3826,
      "(X": 18063,
      "_output": 25323,
      "??": 25321,
      "Ġjo": 7361,
      "Ġleader": 1464,
      "ĠVis": 8140,
      "-C": 3395,
      "ĠStud": 5295,
      "stitute": 11021,
      "More": 10288,
      "ĠDescription": 273,
      "ads": 8445,
      "ĠÐº": 4864,
      "bind": 13507,
      "employ": 22007,
      ".all": 26963,
      "-B": 3463,
      "alm": 20187,
      "Ġculture": 795,
      "house": 9180,
      "Ġsuffer": 24599,
      "Ġstraight": 12736,
      "ĠStar": 6757,
      "udo": 23804,
      "Ġded": 25314,
      "ĠCOM": 15438,
      "Ġconfirm": 5669,
      "ĠGood": 4928,
      ".sc": 25312,
      "________________": 19520,
      "DR": 10239,
      "Configuration": 30178,
      "Ġcouldn": 9729,
      "async": 24752,
      "stack": 25262,
      "Kit": 29003,
      "Ġmechan": 15808,
      "rate": 13685,
      "204": 12505,
      "Ġaudio": 5145,
      "cores": 29748,
      "Ġspot": 5418,
      "Ġincreasing": 4281,
      "points": 28897,
      "Ġcompared": 6222,
      "lig": 11767,
      "Ġbehavior": 1675,
      "ĠBY": 15355,
      "ĠAtt": 9376,
      "craft": 21474,
      "ete": 3669,
      "Ġdetail": 1133,
      "ĠCommon": 10198,
      "ston": 23126,
      "Ġfresh": 5436,
      ".example": 15930,
      "berg": 5287,
      "Ġmoved": 19713,
      "ĠSaturday": 9898,
      "Ġpayload": 15012,
      "Äĩ": 23839,
      "):ĊĊ": 31394,
      "urer": 3448,
      "<script": 30389,
      "Ġsymbol": 3376,
      "Ġpul": 21633,
      "Effect": 7873,
      "Ġhundred": 30936,
      "Tool": 27673,
      "aked": 30981,
      "connection": 16008,
      "Ġvoice": 2408,
      "Ġpd": 8051,
      "Ġtransaction": 8865,
      "Ġlinks": 9858,
      "ĠIndian": 4152,
      "TC": 9382,
      "ni": 12511,
      "ji": 16358,
      "ya": 11691,
      "Ġdemonstr": 18302,
      "ulated": 16467,
      "Ġboost": 14927,
      "Ġcells": 5663,
      ".Pro": 20667,
      ":</": 75,
      "ifying": 5702,
      "ĠDi": 2692,
      ".execute": 19529,
      "Ġcollege": 1330,
      "Your": 1817,
      "Ġlargest": 1857,
      "Ġqui": 2429,
      "Ġindividuals": 719,
      "Ġng": 17748,
      "SA": 2134,
      "ĠControl": 3183,
      "Ġsing": 19977,
      "Ġsuit": 464,
      "SG": 10678,
      "Ġjump": 20149,
      "Ġsmart": 5992,
      "oma": 9023,
      "ĠExp": 8469,
      "Ġassist": 813,
      "Ġsuccessfully": 2462,
      "sys": 28010,
      "ĠCre": 13883,
      "ĠThursday": 11824,
      "Ġbur": 10330,
      "ĠÐ´": 10490,
      "Ġbeyond": 2480,
      "Ġnodes": 12317,
      "Details": 10958,
      "ĠJames": 16487,
      "Ġaffect": 4099,
      "-se": 8205,
      "Ġfetch": 14923,
      "`,": 3091,
      "}.": 27862,
      "ĠBO": 16524,
      "Ġrates": 1833,
      "Ġbon": 5819,
      "ĠMedia": 5708,
      "ĠValid": 6950,
      "Ð¾Ð»": 13252,
      "acks": 12992,
      "Ġstudies": 3275,
      "Me": 6978,
      "Ġowners": 7852,
      "Ġgrowing": 1569,
      "Variable": 24459,
      "ĠBel": 6228,
      ".random": 12530,
      "vement": 13545,
      "Ġtorch": 9686,
      "(row": 20773,
      "igo": 19175,
      "121": 15298,
      "Ġcertainly": 19072,
      "Dep": 6438,
      "ĠGreen": 6308,
      "Ġadding": 296,
      "ĠDevelop": 2404,
      "Ġmach": 17527,
      "Project": 6731,
      "Ġreject": 20627,
      "Ġpoor": 9359,
      "Ġaware": 4711,
      "114": 14437,
      "ĠBuild": 8213,
      "ĠBritish": 7383,
      "ĠNE": 7457,
      "rees": 23332,
      "Ġmock": 21494,
      "Ġom": 2686,
      "OLD": 27129,
      "eler": 13687,
      "Ġcorrespond": 18193,
      "Ġbinary": 8216,
      "116": 19628,
      "ĠSQL": 3024,
      "Ġprev": 18557,
      ".[": 31575,
      "arp": 23889,
      "Ġclosed": 8665,
      "Ġencour": 30339,
      "aud": 12561,
      "Ġdeveloped": 2354,
      "Ġpermission": 13922,
      "operator": 16416,
      "Ġsym": 18562,
      "atively": 2200,
      "Ã©e": 2111,
      "-color": 10539,
      "ĠGET": 17254,
      "ky": 6290,
      "Ġalthough": 13095,
      "_request": 25463,
      "_element": 14847,
      "Ġamazing": 1918,
      "Events": 23357,
      "Ġfailure": 7123,
      "Ġdream": 4889,
      "Ġau": 1482,
      "Ġgenerated": 222,
      "ĠTeam": 815,
      "Ġincome": 3095,
      "Ġeye": 4387,
      "Support": 1292,
      "orders": 26598,
      "ville": 2748,
      "ĠWednesday": 15419,
      "olver": 14671,
      "isation": 3304,
      "ola": 7476,
      "Close": 12443,
      "<p": 399,
      "_width": 24627,
      "Invalid": 17124,
      "ĠPath": 1276,
      "alar": 10532,
      "service": 7490,
      "ĠMichael": 19516,
      "Debug": 24936,
      "She": 24282,
      "Ġguess": 9916,
      "ĠJava": 3073,
      "Ġparticularly": 2023,
      "ĠII": 3874,
      "Ġdomain": 4842,
      "å¹´": 3781,
      "Ġreduce": 1285,
      "-left": 18912,
      "real": 22415,
      "Ġappears": 9395,
      "Ġcomo": 4574,
      "ĠUnit": 1183,
      "ali": 6207,
      "ĠJew": 30745,
      "ĠGlobal": 3479,
      "Ġtele": 4478,
      "ben": 3159,
      "Ġreasons": 4835,
      "Ġemb": 20299,
      "ensity": 27298,
      "lines": 312,
      "omin": 30381,
      "Screen": 13599,
      "Ð°ÑĤ": 10935,
      "pects": 14146,
      "rent": 8673,
      "Ġaf": 8425,
      "Ġdanger": 18495,
      "iling": 12067,
      "Our": 1065,
      "Ġdistribution": 2819,
      "While": 2758,
      "SL": 2944,
      "Write": 8472,
      "Ġcolors": 5079,
      "Ġpowerful": 3281,
      "kin": 12177,
      "Ġdepth": 5029,
      "ercial": 31317,
      "ĠCongress": 29886,
      "ĠMarket": 6623,
      "under": 12018,
      "ĠLast": 14312,
      "ÃŁ": 2557,
      "Ġposts": 14457,
      "Don": 10544,
      "Ġmicro": 3545,
      "Ġarrest": 11441,
      "Ð¿": 9076,
      "ĠHot": 10268,
      "ĠIndex": 12367,
      ";&": 14255,
      "ĠNor": 23958,
      "ĠCap": 6945,
      "-(": 27707,
      "Ġinterested": 1342,
      "Ġrent": 20269,
      "Ġalbum": 12091,
      "olicy": 11236,
      "phere": 18531,
      "Ġaxis": 17153,
      "ĠBusiness": 1556,
      "urr": 16737,
      "Ġminimum": 389,
      "endor": 27265,
      "ĠSD": 10282,
      "113": 22588,
      "ĠInternet": 8600,
      "Exp": 8843,
      "iverse": 8783,
      "MM": 15089,
      "Ġobvious": 26268,
      "Ġbasis": 1286,
      "Ġscience": 1993,
      "Ġbudget": 442,
      "izations": 4579,
      "PA": 3242,
      "Ġflags": 24420,
      "pret": 10748,
      "Ġvariety": 1109,
      "Ġtruth": 9753,
      "dt": 28470,
      "Ġgone": 19665,
      "Ġbattle": 14673,
      "<std": 25322,
      "ĠSil": 17055,
      "rf": 6895,
      "uda": 15605,
      "ĠCam": 14696,
      "Ġstation": 6093,
      "ĠSun": 7408,
      "Ġfinished": 11142,
      "Ġshop": 6758,
      "Ġeight": 9728,
      "ND": 21765,
      ">,": 49,
      "(num": 16383,
      "Ġmail": 8255,
      "results": 18293,
      "Ġnav": 19209,
      "_ids": 18826,
      "Make": 5844,
      "åĬ": 9210,
      "ĠSur": 13914,
      "Ġoverall": 2014,
      "ĠInformation": 1132,
      "Ġconstruction": 1634,
      "_FILE": 26044,
      "but": 13063,
      "Ġmedic": 25294,
      "Ġduration": 4562,
      "agent": 15764,
      "AV": 5687,
      "Ġseven": 8175,
      "olf": 21953,
      "\"],Ċ": 24880,
      "170": 8827,
      "122": 11279,
      "Ġcalling": 6560,
      "Ġans": 3467,
      "ĠuseState": 15765,
      "ĠStatus": 5062,
      "ĠOnline": 4238,
      "RR": 20896,
      "ĠRich": 17409,
      "ĠHill": 6344,
      "Ġbrain": 6017,
      "Ġfollowed": 7132,
      "240": 10172,
      "emic": 26245,
      "Ġslight": 26246,
      "Ġinsurance": 316,
      "Ġabstract": 11473,
      "ĠSum": 14287,
      "owner": 27528,
      "ĠClinton": 28405,
      "Non": 7450,
      "Ġvolume": 4826,
      "-L": 3341,
      "ĠDim": 21836,
      "Ġcursor": 14318,
      "Ġimplementation": 1468,
      "Ġlarger": 4360,
      "Ġupload": 6162,
      "Draw": 29426,
      "nel": 4216,
      "ĠNetwork": 2181,
      "Ġtit": 14266,
      "Axis": 21370,
      ".android": 29499,
      "Ġcompleted": 2349,
      "Ġcolumns": 9369,
      "Ġsupply": 3433,
      "Ġspr": 14608,
      "Ġunits": 3308,
      "mi": 7110,
      "replace": 22882,
      "antic": 21479,
      "Ġpayment": 2781,
      "ĠApple": 7783,
      "gin": 16552,
      "Required": 1305,
      "lands": 4128,
      "Ġfactor": 6743,
      "dec": 19256,
      "Ġstrength": 4708,
      "Ġboy": 28576,
      "Ġbalance": 1476,
      "Ġsources": 1851,
      "screen": 16513,
      "-top": 20747,
      "ĠAmazon": 3362,
      "Ġhidden": 3753,
      "ÐµÑĤ": 6263,
      "Ġeat": 11664,
      ".display": 26534,
      "ĠÂ»": 14184,
      "Ġtrigger": 17577,
      "Ġtro": 12016,
      "Ġclaims": 5356,
      "ford": 6170,
      "ĠCompany": 406,
      "Ġgift": 9227,
      "handle": 20505,
      "Ġproduce": 2900,
      "512": 28525,
      "arc": 16507,
      "ander": 6318,
      "ĠEngine": 8653,
      "Ġattributes": 13645,
      "task": 18849,
      "Ġwarm": 4967,
      "which": 17573,
      "ĠFore": 8010,
      "agnost": 17572,
      "Ġtal": 15331,
      "ĠSal": 10004,
      "gi": 8965,
      "ĠPrint": 9000,
      "ĠÐ¾": 4707,
      "Ġflash": 16979,
      "ĠMill": 11502,
      "bi": 10241,
      "contr": 26482,
      "ĠSam": 8497,
      "Ġnegative": 3891,
      "Ġsett": 16109,
      "abe": 6722,
      "Ġburn": 15563,
      "Ġsociety": 3156,
      "Cache": 29055,
      "ĠSecurity": 1706,
      ".models": 27891,
      "Ġclients": 582,
      "Ġproviding": 295,
      "Ġrout": 27899,
      "material": 29705,
      "ĠSer": 17402,
      "ĠOffice": 1271,
      "Ġ'$": 31739,
      "Ġfoc": 24687,
      "Ġcat": 11042,
      "normal": 29771,
      "Ġdetermine": 2433,
      "Ġemployees": 636,
      "ĠTexas": 1926,
      "ĠReport": 4025,
      "anta": 13481,
      "ĠBox": 13486,
      "Ġdjango": 30034,
      "Ġpartner": 1344,
      "EB": 521,
      "LINE": 25478,
      "Ġfeeling": 4940,
      "Ġcivil": 5248,
      "Ġwouldn": 27335,
      ".init": 31068,
      "-v": 10767,
      "'}": 11979,
      "AF": 12061,
      "Ġloading": 10588,
      "ĠOnly": 5535,
      "Ġcookies": 11034,
      "ĠGl": 10158,
      "CO": 7711,
      "Ġstrategy": 2173,
      "Ġship": 8683,
      "Ġsignal": 4449,
      "Ġalpha": 22975,
      ".pop": 25519,
      "Ġreplace": 299,
      "_DIR": 23294,
      "counter": 16297,
      "ela": 9577,
      "Weight": 22857,
      "ĠEmail": 4878,
      "Ġrefer": 5146,
      "localhost": 15091,
      "iques": 2601,
      "Step": 2998,
      "Ġahead": 7270,
      "ĠServices": 1045,
      "ĠJson": 30490,
      "essor": 24339,
      "Ġpun": 25356,
      "Ġappropriate": 958,
      "akers": 12235,
      "posing": 23269,
      "Ġagent": 12238,
      "fc": 14268,
      "Ġtransfer": 3510,
      "Ġinvalid": 13226,
      "ĠResearch": 2450,
      "Ġgay": 25426,
      "Ġjournal": 9771,
      "ĠWell": 6019,
      "Spec": 28253,
      "Ġol": 21415,
      "Ġspend": 7300,
      "ĠAustralia": 6462,
      "Match": 27767,
      "izable": 25406,
      "clusive": 6523,
      "Ġquarter": 11619,
      "yan": 23034,
      "005": 15227,
      "ĠEdit": 23697,
      "arden": 7295,
      "Ġfrag": 16590,
      "zi": 5996,
      "aine": 8238,
      "udd": 15095,
      "Ġcash": 2828,
      "Ġeen": 1626,
      "Ġcommercial": 2244,
      "ĠVideo": 20277,
      "Ġfixed": 7968,
      "Ġapplications": 840,
      "ĠRussia": 8358,
      "itect": 15214,
      "ĠBlock": 13524,
      "ĠTom": 8577,
      "Ġperhaps": 7957,
      "Ġsig": 25172,
      "levant": 9871,
      "ronic": 14818,
      "xe": 19979,
      "Ġeth": 10723,
      "Some": 2567,
      "pop": 29410,
      "Ġtend": 9223,
      ".Res": 22246,
      "Ġreviews": 2574,
      "Ġwild": 5757,
      "117": 18914,
      "Ġdegree": 558,
      ".O": 14925,
      "Ġdisabled": 10145,
      "Parent": 15034,
      "Ġnotes": 5582,
      "istrict": 30834,
      "Ġlogging": 9423,
      ".IO": 24926,
      "ĠMal": 7583,
      "DM": 12572,
      "ĠRobert": 20248,
      "elen": 7001,
      "layout": 12115,
      "fol": 15754,
      "filename": 22059,
      "Ġfan": 9106,
      "ĠCustom": 11961,
      "ĠDie": 3293,
      ".utils": 30411,
      "Ġtrip": 6880,
      "MB": 8833,
      "Ġsoft": 6037,
      "Ġapplicable": 1348,
      "Ġupper": 7653,
      "Here": 2004,
      "ĠServer": 4689,
      "ĠClient": 904,
      "Ġchem": 17843,
      "Scroll": 23948,
      "Ġhighest": 1676,
      "ĠSelect": 8983,
      "ĠWhy": 6212,
      "Sec": 11578,
      "Ġconnected": 4687,
      "ĠChe": 11749,
      "Ġforces": 8775,
      "Ġwww": 3080,
      "Root": 20617,
      "ANCE": 14029,
      "Many": 17027,
      "icip": 1540,
      "220": 7897,
      "ĠTor": 20057,
      "ĠPress": 11779,
      "ĠMor": 21446,
      "-line": 5810,
      ">\\": 19029,
      "Ġthus": 20041,
      "ĠRegister": 17060,
      "hol": 16849,
      "ĠChinese": 7623,
      "Ġposted": 4587,
      "Ġmagn": 27591,
      "abilities": 11013,
      "Ġdisease": 3561,
      "Ġremains": 5068,
      "ĠProf": 2104,
      "-form": 313,
      "organ": 15488,
      "icate": 23132,
      "Ġstress": 3035,
      "Ġdied": 26899,
      "mat": 7197,
      "Ġstarts": 4399,
      "Ġruns": 8817,
      "Ġguide": 1846,
      "Ġwarranty": 16514,
      "entials": 31454,
      "ĠSize": 19769,
      "uler": 14218,
      "Ġresponsible": 654,
      "Ġcontaining": 224,
      "ĠPrice": 11939,
      "350": 6714,
      "FS": 4902,
      "Ġemp": 7838,
      "_button": 24149,
      "Ġsuff": 29702,
      "Ġdefinitely": 7907,
      "Ġmarketing": 1631,
      "ĠWH": 26091,
      "ĠSie": 873,
      "Ġconsult": 3450,
      "Ġsigned": 8961,
      "Ġsequence": 5874,
      "lee": 13758,
      "Ġrequirements": 591,
      "hy": 9479,
      "MT": 8991,
      "sey": 25286,
      "elligence": 18434,
      "Ġanaly": 8989,
      "Ġdress": 7257,
      "ĠGreat": 2598,
      "ĠAndroid": 8604,
      "ĠAlex": 8641,
      "mode": 19846,
      "Ġfamilies": 1128,
      "ĠRussian": 7757,
      "ĠTimes": 12106,
      "Ġfolder": 16181,
      "ches": 7059,
      "unes": 15262,
      "agen": 3713,
      "ĠHand": 4444,
      "Ġbiggest": 7753,
      "Ġpermissions": 12756,
      "Ġshowed": 20657,
      "ĠElement": 29863,
      "Ġtopic": 4261,
      "road": 18030,
      "ĠBank": 3742,
      "Ġpartners": 1697,
      "ĠRef": 2470,
      "essions": 29228,
      "Ġassess": 2609,
      "UST": 12107,
      "ĠParty": 21719,
      "produ": 13936,
      "LC": 7528,
      "Ġul": 18108,
      "copy": 8369,
      "UTF": 26942,
      "ĠLin": 28091,
      "una": 8442,
      "ugar": 26025,
      "Ġadministration": 1856,
      "Ġopening": 2469,
      "Ġscan": 9814,
      "Ġcontinued": 3876,
      "Ġhappens": 15569,
      "ĠPR": 2556,
      "ĠDownload": 20968,
      "di": 9306,
      "Ġwaiting": 7322,
      "Tab": 28079,
      ".querySelector": 28933,
      "Ġeconomy": 5023,
      "ĠFrench": 7449,
      "txt": 28070,
      "SH": 13160,
      "004": 15773,
      "Ġnumpy": 11108,
      "Ġstreet": 12314,
      "Ġmale": 8385,
      "anging": 28890,
      "333": 13997,
      "ĠBill": 7317,
      "Ġpreviously": 12544,
      "BI": 13356,
      "ĠSecret": 8215,
      "Ġmist": 16059,
      "ĠField": 5792,
      "ups": 11073,
      "ĠProcess": 3134,
      "Ġkept": 7878,
      "ĠOT": 2088,
      "Ġtraditional": 1273,
      "amin": 14143,
      "Ġhelps": 2205,
      "Any": 9742,
      "ju": 14781,
      "ĠAccount": 1858,
      "Ġut": 4079,
      "Ġcentral": 5423,
      "Ġsatisf": 9644,
      "GR": 14814,
      "ĠFull": 1334,
      "Ġheat": 3766,
      "iber": 14674,
      "Ġonto": 9445,
      "mos": 8824,
      "Ġfactory": 16025,
      "aws": 12679,
      "Statement": 26178,
      ".be": 10051,
      "Ġguest": 4053,
      "Ġmal": 3572,
      "ARY": 518,
      "Ġreached": 13970,
      "Ġmouse": 16993,
      "Ġchallenge": 2606,
      "ĠTem": 11884,
      "Ġextract": 7488,
      "Ġseparate": 6159,
      "Ġmir": 23086,
      "help": 21787,
      "Ġcapacity": 3025,
      "ĠProperty": 10904,
      "kan": 7591,
      "ĠLight": 10129,
      "Ġunderstanding": 605,
      "Ġeasier": 4491,
      "Ġfat": 19890,
      "Ġprotest": 29478,
      "amm": 4810,
      "-of": 2319,
      "ils": 3596,
      "ĠOh": 17245,
      "Ġpsych": 7223,
      "inds": 19828,
      "Ġrelative": 8801,
      "short": 25583,
      "ĠSand": 18585,
      "210": 14727,
      "Ġfear": 11632,
      "Ġschools": 2328,
      "Ġserve": 1323,
      "zone": 21813,
      "Ġmajority": 10582,
      "example": 8579,
      "Ġlang": 5866,
      "endo": 9661,
      "Ġprocessing": 1641,
      "-user": 15083,
      "Ġeg": 28888,
      "COM": 18034,
      "ĠBlue": 3862,
      "iro": 12673,
      "Ġremote": 2229,
      "ĠIT": 1107,
      "124": 10144,
      "raz": 24956,
      "ĠSince": 4430,
      "ĠTur": 16198,
      "135": 13664,
      "Background": 8431,
      "Ġreflect": 2695,
      "Ġpros": 15826,
      "Ġwhom": 13573,
      "ĠAre": 2563,
      "gu": 15388,
      "Ġmonitor": 2125,
      "rm": 7007,
      "Ġpatient": 250,
      "Ġgain": 1797,
      "Inst": 24369,
      "Ġdies": 26232,
      "118": 13698,
      "Area": 12325,
      "Ġreality": 4463,
      "ordinate": 21547,
      "olved": 16436,
      "Contact": 14054,
      "Ġcompliance": 1009,
      "ĠVar": 18907,
      "Ġappend": 20862,
      "GER": 27811,
      "(max": 22824,
      "Ġdynamic": 1035,
      "ordinates": 21303,
      "_column": 24851,
      "La": 5007,
      "ĠSource": 7616,
      "/bin": 26763,
      "Ġdos": 5625,
      "ĠBoard": 1296,
      "ĠAL": 6811,
      "144": 19629,
      "ĠMer": 11029,
      "Ġmiles": 4006,
      "izz": 13856,
      "Ġbenefit": 2187,
      "Ġintegr": 6992,
      "ulo": 25146,
      "ĠDiv": 31001,
      "Ġton": 10895,
      "oth": 13835,
      "ervation": 10035,
      "Ġbaby": 15278,
      ".top": 23271,
      "riority": 8253,
[...]
